<s>	0
<pad>	0
</s>	0
<unk>	0
▁the	-3
▁,	-3
▁.	-3
;	-3
▁&	-3
▁to	-3
▁a	-4
▁of	-4
▁and	-4
apos	-4
s	-4
▁in	-4
quot	-4
-	-4
▁@	-4
@	-4
▁that	-4
▁for	-4
▁is	-5
▁on	-5
▁was	-5
▁with	-5
▁The	-5
▁it	-5
▁I	-5
▁as	-5
▁at	-5
▁he	-5
▁be	-5
▁said	-5
▁have	-5
▁his	-5
▁by	-5
▁from	-5
▁has	-5
▁are	-5
▁:	-5
ing	-5
▁-	-5
ed	-5
t	-5
▁not	-5
▁an	-5
.	-6
▁her	-6
▁who	-6
▁will	-6
▁this	-6
▁but	-6
▁they	-6
▁their	-6
▁had	-6
▁you	-6
▁been	-6
ly	-6
▁)	-6
▁(	-6
▁were	-6
▁up	-6
▁we	-6
▁she	-6
▁or	-6
▁which	-6
▁more	-6
▁one	-6
▁It	-6
▁about	-6
▁out	-6
▁year	-6
▁after	-6
▁would	-6
▁can	-6
lt	-6
▁all	-6
▁when	-6
▁br	-6
gt	-6
▁He	-6
▁also	-6
d	-6
▁time	-6
▁than	-6
▁people	-6
▁A	-6
▁over	-6
▁so	-6
▁But	-6
▁there	-6
▁two	-6
▁into	-6
▁first	-6
▁its	-6
▁?	-6
▁just	-6
▁In	-6
▁last	-6
▁him	-6
▁what	-6
m	-6
▁like	-6
▁if	-6
▁could	-6
▁new	-6
▁no	-6
▁my	-6
▁them	-7
▁years	-7
▁do	-7
y	-7
▁some	-7
▁back	-7
▁We	-7
▁other	-7
e	-7
▁now	-7
▁our	-7
▁only	-7
▁get	-7
▁before	-7
▁Mr	-7
▁being	-7
▁off	-7
▁me	-7
▁$	-7
▁£	-7
▁because	-7
re	-7
▁most	-7
▁three	-7
▁told	-7
▁your	-7
▁how	-7
▁And	-7
▁made	-7
▁where	-7
▁make	-7
▁old	-7
▁against	-7
▁down	-7
▁while	-7
▁This	-7
▁then	-7
▁very	-7
▁	-7
▁week	-7
▁day	-7
▁way	-7
▁any	-7
▁says	-7
▁even	-7
▁She	-7
▁well	-7
▁many	-7
▁home	-7
▁/	-7
▁much	-7
▁They	-7
▁going	-7
▁those	-7
▁should	-7
▁;	-7
▁still	-7
▁through	-7
▁world	-7
ve	-7
▁think	-7
▁take	-7
▁per	-7
▁don	-7
▁work	-7
▁go	-7
▁team	-7
▁good	-7
▁1	-7
▁did	-7
▁see	-7
▁such	-7
S	-7
▁government	-7
▁since	-7
▁during	-7
▁long	-7
▁around	-7
▁know	-7
▁say	-7
▁may	-7
▁New	-7
▁There	-7
▁under	-7
▁want	-7
▁U	-7
▁Trump	-7
▁next	-7
▁right	-7
er	-7
▁life	-7
▁between	-7
▁us	-7
▁game	-7
▁million	-7
▁10	-7
▁part	-7
▁too	-7
▁season	-7
▁second	-7
▁country	-7
▁four	-7
▁need	-7
▁show	-7
▁these	-7
▁If	-7
▁another	-7
▁man	-7
▁including	-7
▁best	-7
▁former	-7
▁own	-7
▁family	-7
▁got	-7
▁left	-7
▁2	-7
▁That	-7
▁end	-7
▁set	-7
▁really	-7
▁cent	-7
▁come	-7
▁found	-7
▁same	-7
▁never	-7
▁high	-7
▁both	-7
▁!	-7
▁top	-7
▁state	-7
▁United	-7
▁night	-7
▁police	-7
▁help	-7
▁You	-7
▁public	-7
▁five	-7
▁As	-7
▁won	-7
▁US	-7
▁put	-7
▁3	-7
▁children	-7
▁month	-8
▁place	-8
▁play	-8
▁win	-8
▁called	-8
▁women	-8
▁London	-8
▁look	-8
▁company	-8
a	-8
th	-8
▁...	-8
▁away	-8
▁added	-8
▁took	-8
▁used	-8
▁days	-8
▁For	-8
▁4	-8
▁months	-8
▁England	-8
▁every	-8
▁might	-8
▁group	-8
▁20	-8
▁number	-8
▁UK	-8
ll	-8
▁big	-8
▁great	-8
▁here	-8
▁few	-8
▁came	-8
▁money	-8
▁little	-8
▁seen	-8
▁So	-8
▁didn	-8
▁When	-8
▁again	-8
▁de	-8
▁give	-8
▁later	-8
▁--	-8
▁half	-8
▁far	-8
▁use	-8
▁star	-8
▁better	-8
▁something	-8
▁support	-8
▁without	-8
▁players	-8
▁went	-8
▁British	-8
▁side	-8
▁six	-8
▁5	-8
▁always	-8
▁final	-8
▁having	-8
▁deal	-8
▁lot	-8
▁One	-8
▁No	-8
▁case	-8
▁American	-8
▁percent	-8
▁things	-8
▁party	-8
▁6	-8
▁start	-8
▁President	-8
▁become	-8
▁already	-8
▁On	-8
▁point	-8
▁each	-8
▁past	-8
▁until	-8
▁face	-8
▁%	-8
▁12	-8
▁Sunday	-8
▁making	-8
▁run	-8
▁ago	-8
▁head	-8
▁League	-8
▁according	-8
▁30	-8
▁City	-8
▁business	-8
▁president	-8
▁campaign	-8
▁ever	-8
▁does	-8
▁young	-8
▁Friday	-8
o	-8
▁At	-8
▁men	-8
▁early	-8
▁today	-8
▁What	-8
▁club	-8
▁report	-8
▁find	-8
▁health	-8
n	-8
▁must	-8
▁World	-8
▁across	-8
▁less	-8
▁market	-8
▁change	-8
▁15	-8
▁May	-8
▁whether	-8
▁school	-8
▁Monday	-8
▁hard	-8
▁why	-8
▁saying	-8
▁taken	-8
▁Tuesday	-8
▁working	-8
▁House	-8
▁media	-8
▁full	-8
I	-8
▁pay	-8
▁different	-8
▁keep	-8
▁enough	-8
▁York	-8
▁least	-8
▁third	-8
▁though	-8
▁given	-8
▁move	-8
▁love	-8
▁thought	-8
▁hit	-8
▁Wednesday	-8
▁city	-8
▁feel	-8
▁asked	-8
▁11	-8
▁free	-8
es	-8
▁Saturday	-8
▁Thursday	-8
amp	-8
▁court	-8
▁social	-8
▁David	-8
▁able	-8
▁taking	-8
▁looking	-8
▁South	-8
▁Cup	-8
▁system	-8
▁times	-8
▁After	-8
▁Britain	-8
▁car	-8
▁behind	-8
▁close	-8
▁political	-8
▁based	-8
▁John	-8
▁known	-8
▁once	-8
▁S	-8
▁power	-8
▁following	-8
▁together	-8
▁thing	-8
▁China	-8
▁black	-8
▁death	-8
▁done	-8
▁7	-8
▁local	-8
▁future	-8
▁among	-8
▁Obama	-8
▁recent	-8
▁tax	-8
▁18	-8
▁decision	-8
▁yet	-8
▁West	-8
▁woman	-8
▁important	-8
▁statement	-8
▁likely	-8
▁His	-8
▁job	-8
▁reported	-8
▁line	-8
▁lost	-8
▁getting	-8
▁Australia	-8
▁mother	-8
▁weeks	-8
▁news	-8
▁course	-8
▁points	-8
▁expected	-8
▁doing	-8
r	-8
▁am	-8
▁sure	-8
▁real	-8
▁series	-8
▁*	-8
▁clear	-8
▁house	-8
com	-8
▁law	-8
▁To	-8
▁lead	-8
▁With	-8
▁played	-8
▁election	-8
▁care	-8
▁often	-8
▁However	-8
▁comes	-8
▁19	-8
▁officials	-8
▁European	-8
▁almost	-8
▁return	-8
▁believe	-8
▁small	-8
▁trying	-8
▁doesn	-8
▁fans	-8
▁several	-8
▁match	-8
▁North	-8
▁hours	-8
▁late	-8
▁player	-8
▁wrote	-8
▁fact	-8
▁couple	-8
▁national	-8
▁further	-8
▁members	-8
▁major	-8
▁8	-8
▁record	-8
▁games	-8
▁forward	-8
▁result	-8
▁started	-8
▁call	-8
▁certain	-8
▁person	-8
▁live	-8
▁wife	-8
▁front	-8
▁due	-8
▁hand	-8
▁16	-8
▁son	-8
▁security	-8
▁himself	-8
▁attack	-8
▁bit	-8
▁open	-8
▁National	-8
▁50	-8
▁O	-8
▁wanted	-8
▁&#93;	-8
▁March	-8
▁billion	-8
▁earlier	-8
▁risk	-8
▁name	-8
▁minutes	-8
▁film	-8
▁&#91;	-8
▁All	-8
▁While	-8
▁football	-8
i	-8
▁chief	-8
▁information	-8
▁coming	-8
▁international	-8
▁role	-8
▁area	-8
▁near	-8
▁video	-8
▁body	-8
▁service	-8
▁14	-8
▁25	-8
▁saw	-8
▁playing	-8
▁2016	-8
▁announced	-8
▁ahead	-8
▁TV	-8
▁level	-8
▁cut	-8
▁My	-8
▁water	-8
▁summer	-8
▁shot	-8
▁held	-8
▁Ms	-8
▁financial	-8
▁director	-8
▁rather	-8
▁career	-8
▁outside	-8
▁father	-8
▁13	-8
▁By	-8
▁led	-8
▁child	-8
▁along	-8
▁age	-8
▁term	-8
▁white	-8
▁9	-8
▁leader	-8
▁bring	-8
▁cost	-8
▁seven	-8
▁possible	-8
▁0	-8
▁strong	-8
▁plan	-8
▁food	-8
▁low	-8
▁using	-8
▁manager	-8
▁Minister	-8
▁round	-8
▁moment	-8
▁States	-8
▁Manchester	-8
▁revealed	-8
▁100	-8
▁let	-8
▁America	-8
▁kind	-8
▁EU	-8
▁remain	-8
▁17	-8
▁history	-8
▁staff	-8
▁companies	-8
▁June	-8
▁try	-8
▁leave	-8
▁University	-8
▁within	-8
▁D	-8
▁died	-8
▁continue	-8
▁looked	-8
▁event	-8
▁military	-8
▁killed	-8
▁2015	-8
▁short	-8
▁post	-8
▁Labour	-8
▁room	-8
▁vote	-8
▁war	-8
▁chance	-8
▁BBC	-8
▁story	-8
▁stop	-8
▁interest	-8
▁State	-8
▁morning	-8
▁goal	-8
▁issue	-8
▁others	-8
▁means	-8
▁Dr	-8
▁Some	-8
▁allow	-8
▁nothing	-8
▁order	-8
▁someone	-8
▁huge	-8
▁friends	-8
▁eight	-8
▁countries	-8
▁recently	-8
▁anything	-8
▁office	-8
▁whose	-8
▁2014	-8
▁rate	-8
▁James	-8
▁large	-8
▁Europe	-8
▁April	-8
▁problem	-8
▁began	-8
▁fight	-8
▁Michael	-8
▁hope	-8
▁action	-8
▁became	-8
▁despite	-8
▁plans	-8
▁White	-8
▁wasn	-8
▁Now	-8
▁online	-8
▁24	-8
▁An	-8
▁control	-8
▁ball	-8
▁gave	-8
▁price	-8
▁France	-8
▁official	-8
▁meeting	-8
▁Scotland	-8
▁study	-8
▁daughter	-8
▁race	-8
▁21	-8
▁policy	-8
▁share	-8
▁services	-8
▁current	-8
▁economy	-8
▁shows	-8
▁experience	-8
▁economic	-8
▁stage	-8
▁Washington	-8
▁released	-8
▁turned	-8
▁40	-8
▁showed	-8
▁parents	-8
▁Police	-8
man	-8
▁air	-8
▁makes	-8
▁C	-8
▁January	-8
▁2012	-8
▁single	-8
▁private	-8
▁Australian	-8
▁actually	-8
▁turn	-8
▁s	-8
▁everything	-8
▁industry	-8
▁data	-8
al	-8
▁process	-8
▁co	-8
▁pair	-8
▁George	-8
▁husband	-8
▁quite	-8
▁red	-8
▁quarter	-8
▁winning	-8
▁however	-8
▁Russia	-8
▁key	-8
▁stay	-8
▁performance	-8
▁July	-8
▁spent	-8
ers	-8
▁running	-8
▁B	-8
▁paid	-8
▁latest	-8
▁everyone	-8
▁Premier	-8
▁St	-8
▁T	-8
▁fire	-8
▁bad	-8
▁book	-8
▁2013	-8
▁evidence	-8
▁research	-8
▁felt	-8
▁offer	-8
▁difficult	-8
▁needed	-8
▁executive	-8
▁heart	-8
▁E	-8
▁biggest	-8
▁needs	-8
▁nearly	-8
▁themselves	-8
▁Twitter	-9
▁question	-9
▁form	-9
▁weekend	-9
▁community	-9
in	-9
▁position	-9
▁sent	-9
▁News	-9
▁lives	-9
▁Chelsea	-9
▁main	-9
▁idea	-9
▁M	-9
▁soon	-9
▁break	-9
▁How	-9
▁Government	-9
▁received	-9
▁French	-9
▁claims	-9
▁involved	-9
▁Her	-9
▁include	-9
▁22	-9
▁seems	-9
▁Last	-9
▁pressure	-9
▁September	-9
▁global	-9
▁phone	-9
▁human	-9
▁period	-9
▁hospital	-9
▁cases	-9
▁whole	-9
▁relationship	-9
▁Paul	-9
▁victory	-9
▁building	-9
▁living	-9
▁title	-9
▁special	-9
▁happy	-9
▁available	-9
▁coach	-9
▁appeared	-9
▁wrong	-9
▁longer	-9
▁friend	-9
▁growth	-9
▁average	-9
▁training	-9
▁tell	-9
▁December	-9
▁re	-9
▁November	-9
▁probably	-9
▁interview	-9
▁anyone	-9
▁increase	-9
▁ground	-9
▁firm	-9
▁list	-9
▁R	-9
▁talk	-9
▁issues	-9
▁worked	-9
▁self	-9
▁visit	-9
▁Johnson	-9
▁Court	-9
▁higher	-9
▁general	-9
▁similar	-9
▁leading	-9
▁music	-9
▁Of	-9
▁bank	-9
▁wants	-9
▁personal	-9
▁workers	-9
▁claimed	-9
▁23	-9
▁minister	-9
▁rest	-9
▁crisis	-9
est	-9
▁un	-9
▁Street	-9
▁investigation	-9
▁oil	-9
▁provide	-9
▁happened	-9
▁matter	-9
▁results	-9
C	-9
▁heard	-9
▁isn	-9
▁2011	-9
▁member	-9
▁Brexit	-9
▁brought	-9
▁account	-9
▁capital	-9
▁Russian	-9
▁total	-9
▁met	-9
▁October	-9
▁potential	-9
▁sex	-9
▁rights	-9
▁buy	-9
p	-9
▁problems	-9
▁2017	-9
▁serious	-9
▁tried	-9
▁inside	-9
▁reports	-9
▁space	-9
▁loss	-9
▁legal	-9
▁nine	-9
▁trade	-9
▁hold	-9
▁shares	-9
▁senior	-9
▁These	-9
▁energy	-9
▁travel	-9
▁sales	-9
▁class	-9
▁either	-9
▁light	-9
▁spokesman	-9
▁cannot	-9
▁nation	-9
▁gone	-9
▁Not	-9
▁spending	-9
k	-9
▁leaders	-9
▁2010	-9
▁looks	-9
▁especially	-9
▁Day	-9
▁sense	-9
▁Liverpool	-9
▁failed	-9
▁although	-9
▁reason	-9
▁sign	-9
▁site	-9
▁worth	-9
▁August	-9
▁mean	-9
▁situation	-9
▁Department	-9
▁2008	-9
▁impact	-9
▁federal	-9
▁students	-9
▁decided	-9
▁Prime	-9
▁focus	-9
▁allowed	-9
▁la	-9
▁customers	-9
▁rise	-9
▁medical	-9
▁test	-9
▁currently	-9
▁meet	-9
▁hour	-9
▁non	-9
▁anti	-9
▁fall	-9
▁remains	-9
▁simply	-9
▁knew	-9
▁Park	-9
▁Smith	-9
▁foreign	-9
▁California	-9
▁example	-9
▁Facebook	-9
▁board	-9
▁prices	-9
g	-9
▁Chris	-9
▁described	-9
▁centre	-9
▁Republican	-9
▁property	-9
▁read	-9
▁access	-9
▁Chinese	-9
▁cause	-9
am	-9
▁accused	-9
▁Germany	-9
▁previous	-9
▁response	-9
▁baby	-9
▁figure	-9
▁force	-9
▁More	-9
▁continued	-9
▁helped	-9
▁confirmed	-9
▁leaving	-9
▁step	-9
▁cash	-9
▁areas	-9
▁costs	-9
▁Even	-9
▁goes	-9
▁goals	-9
▁2009	-9
an	-9
▁field	-9
▁model	-9
A	-9
▁authorities	-9
on	-9
▁February	-9
▁N	-9
▁release	-9
▁28	-9
▁Christmas	-9
▁else	-9
▁drug	-9
▁shared	-9
▁rules	-9
▁stand	-9
▁Los	-9
▁forced	-9
▁English	-9
▁lower	-9
able	-9
▁p	-9
▁Clinton	-9
▁fell	-9
▁success	-9
▁Cameron	-9
▁hands	-9
▁People	-9
▁27	-9
▁L	-9
▁particularly	-9
▁town	-9
▁thousands	-9
▁mind	-9
▁charge	-9
▁changes	-9
▁families	-9
▁instead	-9
▁terms	-9
▁beat	-9
▁girl	-9
▁watch	-9
us	-9
▁usual	-9
▁dead	-9
▁Instagram	-9
▁injury	-9
▁treatment	-9
▁view	-9
▁income	-9
▁rates	-9
pm	-9
▁Donald	-9
▁quickly	-9
▁takes	-9
▁understand	-9
▁patients	-9
▁Mark	-9
▁bill	-9
▁claim	-9
▁states	-9
▁P	-9
▁moved	-9
▁East	-9
▁words	-9
▁scored	-9
▁F	-9
▁60	-9
▁cancer	-9
▁born	-9
▁Prince	-9
▁26	-9
▁groups	-9
▁above	-9
▁ready	-9
▁fourth	-9
2	-9
▁program	-9
▁road	-9
▁message	-9
▁increasing	-9
▁opportunity	-9
▁hair	-9
▁giving	-9
▁style	-9
▁jobs	-9
▁couldn	-9
▁investment	-9
▁Bank	-9
▁range	-9
▁previously	-9
▁opening	-9
▁press	-9
▁charges	-9
▁kept	-9
▁credit	-9
▁comment	-9
▁published	-9
▁officers	-9
▁administration	-9
▁growing	-9
▁happen	-9
▁minute	-9
▁La	-9
▁ended	-9
▁trial	-9
▁contract	-9
▁popular	-9
▁included	-9
▁forces	-9
▁incident	-9
▁towards	-9
en	-9
▁pretty	-9
▁questions	-9
▁sport	-9
▁conference	-9
▁significant	-9
▁Ireland	-9
▁value	-9
▁Scottish	-9
▁According	-9
▁Royal	-9
▁easy	-9
▁Angeles	-9
▁Arsenal	-9
▁Our	-9
▁Harry	-9
▁technology	-9
▁amount	-9
▁expect	-9
▁challenge	-9
▁International	-9
▁San	-9
▁host	-9
▁safety	-9
▁G	-9
▁winner	-9
▁Two	-9
▁true	-9
▁gold	-9
▁admitted	-9
▁teams	-9
▁posted	-9
▁Paris	-9
▁league	-9
1	-9
▁website	-9
▁positive	-9
▁events	-9
▁2018	-9
▁31	-9
▁build	-9
▁eye	-9
h	-9
▁extra	-9
▁itself	-9
▁date	-9
▁development	-9
▁enjoy	-9
▁d	-9
▁yesterday	-9
▁attacks	-9
▁Brown	-9
▁project	-9
▁create	-9
▁caused	-9
▁India	-9
million	-9
▁photo	-9
▁track	-9
▁kids	-9
▁believed	-9
▁Tom	-9
▁Jones	-9
▁Then	-9
▁29	-9
▁Man	-9
▁Wales	-9
▁ensure	-9
▁ask	-9
▁officer	-9
▁followed	-9
▁competition	-9
▁conditions	-9
▁talks	-9
ness	-9
▁attention	-9
▁region	-9
▁avoid	-9
▁trip	-9
▁violence	-9
▁Sir	-9
▁figures	-9
▁Times	-9
▁tour	-9
▁adding	-9
▁source	-9
▁Party	-9
▁Martin	-9
▁coronavirus	-9
▁prison	-9
▁scene	-9
▁joined	-9
▁pre	-9
▁named	-9
▁ex	-9
&	-9
▁voters	-9
▁agreed	-9
▁famous	-9
▁lack	-9
▁Iran	-9
▁Africa	-9
▁compared	-9
▁speech	-9
▁J	-9
▁middle	-9
▁blood	-9
▁save	-9
▁spend	-9
▁reach	-9
▁talking	-9
▁products	-9
▁arrested	-9
▁largest	-9
▁raised	-9
▁cover	-9
▁calls	-9
▁act	-9
▁straight	-9
▁Sydney	-9
▁wearing	-9
▁King	-9
▁First	-9
▁Meanwhil	-9
▁sold	-9
▁reality	-9
▁majority	-9
▁Americans	-9
▁tough	-9
▁Secretary	-9
▁seem	-9
▁changed	-9
▁offered	-9
▁demand	-9
▁effect	-9
▁finally	-9
▁warned	-9
▁present	-9
▁judge	-9
▁Open	-9
▁debt	-9
▁Mail	-9
▁budget	-9
▁sexual	-9
▁flight	-9
▁central	-9
▁schools	-9
▁boy	-9
▁partner	-9
▁remember	-9
▁alone	-9
▁hotel	-9
▁movie	-9
▁Many	-9
▁debate	-9
▁effort	-9
▁seemed	-9
▁Black	-9
▁German	-9
▁double	-9
▁wouldn	-9
▁approach	-9
▁levels	-9
▁Queen	-9
▁production	-9
▁moving	-9
▁concerns	-9
l	-9
▁signed	-9
▁quality	-9
▁singer	-9
▁letter	-9
▁Another	-9
▁gas	-9
▁arrived	-9
▁picture	-9
▁miles	-9
▁Health	-9
▁television	-9
▁poor	-9
▁safe	-9
▁drive	-9
▁35	-9
,	-9
▁efforts	-9
▁feeling	-9
▁starting	-9
▁Image	-9
▁common	-9
▁AP	-9
▁fund	-9
▁annual	-9
▁border	-9
▁stars	-9
▁dress	-9
▁herself	-9
▁K	-9
▁built	-9
▁murder	-9
▁banks	-9
▁Syria	-9
▁charged	-9
▁t	-9
▁al	-9
▁actor	-9
▁lose	-9
▁immediately	-9
▁Just	-9
▁battle	-9
▁choice	-9
▁champion	-9
▁Korea	-9
▁deep	-9
▁Union	-9
▁Williams	-9
▁returned	-9
co	-9
▁agency	-9
▁gets	-9
▁l	-9
▁Group	-9
▁agreement	-9
▁Yet	-9
▁perhaps	-9
▁evening	-9
▁protect	-9
▁Peter	-9
▁myself	-9
▁created	-9
▁Al	-9
▁brand	-9
▁comments	-9
▁disease	-9
▁details	-9
▁fear	-9
▁Senate	-9
▁From	-9
▁review	-9
▁victims	-9
▁target	-9
▁fine	-9
▁County	-9
▁presidential	-9
N	-9
▁Ben	-9
▁land	-9
▁squad	-9
▁homes	-9
▁Reuters	-9
▁De	-9
▁complete	-9
▁brother	-9
▁education	-9
▁Daily	-9
▁Democratic	-9
▁numbers	-9
▁threat	-9
▁holiday	-9
▁2007	-9
▁ability	-9
▁married	-9
▁beyond	-9
▁pass	-9
▁female	-9
▁spoke	-9
▁appears	-9
▁works	-9
▁door	-9
▁sell	-9
▁increased	-9
▁crowd	-9
le	-9
▁#	-9
▁appear	-9
▁answer	-9
▁contact	-9
▁actress	-9
▁successful	-9
▁le	-9
▁Mrs	-9
▁sort	-9
▁considered	-9
▁Why	-9
▁opened	-9
▁launched	-9
▁Despite	-9
▁General	-9
▁nuclear	-9
▁doubt	-9
st	-9
▁thinking	-9
▁marriage	-9
▁blue	-9
▁character	-9
▁Japan	-9
▁Democrats	-9
▁Council	-9
▁ways	-9
▁word	-9
▁rare	-9
▁prevent	-9
▁perfect	-9
▁girls	-9
▁investors	-9
▁missing	-9
▁reached	-9
▁War	-9
▁2020	-9
▁abuse	-9
▁street	-9
▁Office	-9
▁green	-9
▁Congress	-9
▁driving	-9
▁suggested	-9
▁closed	-9
▁Israel	-9
▁tournament	-9
▁Scott	-9
▁fighting	-9
▁bid	-9
▁alongside	-9
▁Tory	-9
▁opposition	-9
▁showing	-9
▁Most	-9
▁hear	-9
▁Iraq	-9
▁spot	-9
▁suffered	-9
▁throughout	-9
▁worst	-9
▁Olympic	-9
▁Italy	-9
▁70	-9
▁feet	-9
▁follow	-9
▁calling	-9
▁pick	-9
▁decades	-9
▁prime	-9
▁draw	-9
▁drugs	-9
▁boss	-9
▁v	-9
▁subject	-9
▁card	-9
▁Spain	-9
▁caught	-9
▁crime	-9
▁condition	-9
▁speak	-9
▁finished	-9
ic	-9
▁markets	-9
▁natural	-9
▁meant	-9
▁walk	-9
▁weight	-9
▁sector	-9
▁clearly	-9
▁passed	-9
▁pension	-9
▁century	-9
▁eyes	-9
▁Kim	-9
▁damage	-9
▁telling	-9
▁explained	-9
▁businesses	-9
▁supporters	-9
▁highest	-9
▁en	-9
▁chairman	-9
▁confidence	-9
▁sometimes	-9
▁Andrew	-9
▁image	-9
▁join	-9
▁related	-9
▁defeat	-9
▁Robert	-9
▁fellow	-9
▁table	-9
c	-9
▁attempt	-9
▁ban	-9
▁climate	-9
▁Joe	-9
▁politics	-9
▁management	-9
▁wide	-9
▁individual	-9
▁includes	-9
▁putting	-9
▁via	-9
▁professional	-9
▁runs	-9
▁fashion	-9
▁piece	-9
▁massive	-9
▁simple	-9
▁foot	-9
▁Bill	-9
▁watching	-9
▁address	-9
▁Hollywood	-9
▁Richard	-9
▁entire	-9
▁benefits	-9
▁completely	-9
▁Although	-9
▁size	-9
▁box	-9
▁benefit	-9
▁consider	-9
▁fun	-9
▁hundreds	-9
▁NHS	-9
▁managed	-9
▁base	-9
▁hearing	-9
▁fan	-9
▁90	-9
▁shown	-9
▁parties	-9
▁weather	-9
It	-9
▁whom	-9
▁Since	-9
▁stock	-9
▁score	-9
▁Florida	-9
▁measures	-9
▁floor	-9
▁network	-9
▁shooting	-9
▁believes	-9
▁provided	-9
▁below	-9
▁net	-9
▁Google	-9
▁losing	-9
▁Don	-9
▁afternoon	-9
▁injured	-9
▁sister	-9
▁f	-9
▁Madrid	-9
▁north	-9
▁mid	-9
▁80	-9
▁decade	-9
▁twice	-9
▁ten	-9
▁alleged	-9
▁traditional	-9
▁haven	-9
▁sports	-9
▁Champions	-9
▁fit	-9
▁station	-9
▁candidate	-9
▁dropped	-9
▁sound	-9
▁loan	-9
▁caption	-9
▁fast	-9
▁brain	-9
▁seeing	-9
▁aid	-9
▁MP	-9
▁Here	-9
▁leadership	-9
▁population	-9
▁researchers	-9
u	-9
▁particular	-9
▁William	-9
▁driver	-9
▁cars	-9
▁hot	-9
▁reduce	-9
▁Sam	-9
▁Do	-9
▁train	-9
▁respect	-9
▁virus	-9
▁Texas	-9
▁captain	-9
▁art	-9
▁launch	-9
▁plus	-9
▁School	-9
▁improve	-9
▁holding	-9
▁written	-9
less	-9
▁wait	-9
▁45	-9
▁carried	-9
▁independent	-9
▁programme	-9
▁raise	-9
▁H	-9
▁experts	-9
▁store	-9
▁asking	-9
▁MPs	-9
▁normal	-9
▁dangerous	-9
▁2019	-9
▁clubs	-9
▁Thomas	-9
▁Steve	-9
▁modern	-9
▁Center	-9
▁residents	-9
D	-9
▁funds	-9
▁200	-9
▁student	-9
▁Association	-9
▁Red	-9
▁designed	-9
▁fresh	-9
▁search	-9
▁During	-9
▁loved	-9
▁becoming	-9
▁paper	-9
▁advice	-9
▁Real	-9
▁original	-9
▁missed	-9
▁Today	-9
▁exactly	-9
▁skin	-9
▁emergency	-9
▁rule	-9
▁Big	-9
▁defence	-9
▁knows	-9
▁Ryan	-9
▁worse	-9
▁insurance	-9
ie	-9
▁movement	-9
▁W	-9
▁culture	-9
▁add	-9
▁millions	-9
▁funding	-9
▁sale	-9
▁ran	-9
▁Their	-9
▁pitch	-9
▁older	-9
▁African	-9
▁appearance	-9
▁owner	-9
▁drop	-9
▁receive	-9
▁require	-9
▁Apple	-9
▁32	-9
▁parts	-9
▁rose	-9
4	-9
▁users	-9
▁denied	-9
▁Press	-9
▁Both	-9
▁bought	-9
▁paying	-9
▁dark	-9
▁society	-9
▁difference	-9
▁suit	-9
▁south	-9
▁Republicans	-9
▁Great	-9
▁standing	-9
▁Alex	-9
B	-9
▁council	-9
▁cuts	-9
▁planning	-9
▁beauty	-9
▁learn	-9
▁pain	-9
▁par	-9
z	-9
▁Kate	-9
▁Tony	-9
▁finish	-9
▁Or	-9
▁à	-9
▁amid	-9
▁Green	-9
▁beginning	-9
▁spread	-9
▁broke	-9
▁cast	-9
é	-9
▁version	-9
▁committee	-9
▁dog	-9
▁required	-9
▁criminal	-9
▁highly	-9
▁Le	-9
▁regular	-9
▁waiting	-9
▁concerned	-9
▁writing	-9
▁employees	-9
▁stopped	-9
▁page	-9
▁express	-9
▁powerful	-9
▁e	-9
▁facing	-9
▁hopes	-9
▁guilty	-9
▁matches	-9
▁aged	-9
▁Lord	-9
▁debut	-9
▁newspaper	-9
▁strike	-9
▁issued	-9
	-9
▁fair	-9
▁Test	-9
▁continues	-9
▁push	-9
▁contain	-9
▁killing	-9
ar	-9
▁wedding	-9
▁seek	-9
▁selling	-9
▁Mike	-9
▁Star	-9
▁places	-9
▁Lee	-9
▁pro	-9
▁injuries	-9
▁offers	-9
▁www	-9
▁Justice	-9
▁served	-9
▁discuss	-9
▁Hill	-9
▁Murray	-9
▁Melbourne	-9
▁speed	-9
▁begin	-9
▁Sun	-9
▁camera	-9
▁CNN	-9
▁greater	-9
▁Those	-9
▁bar	-9
▁audience	-9
▁seat	-9
▁Mexico	-9
▁voice	-9
▁beautiful	-9
▁heavy	-9
▁fully	-9
▁product	-9
▁type	-9
▁victim	-9
▁High	-9
▁Who	-9
▁operations	-9
x	-9
▁Under	-9
▁allegations	-9
▁Barcelona	-9
▁transfer	-9
▁send	-9
▁carry	-9
▁domestic	-9
▁planned	-9
▁eventually	-9
▁serve	-9
▁secretary	-9
▁2006	-9
▁pull	-9
▁stuff	-9
▁birth	-9
▁display	-9
▁cross	-9
▁surprise	-9
▁offering	-9
▁Northern	-9
▁helping	-9
▁linked	-9
▁Co	-9
▁Will	-9
▁plane	-9
▁touch	-9
ion	-9
▁refused	-9
▁practice	-9
▁penalty	-9
▁doctors	-9
▁seeking	-9
▁concern	-9
▁boys	-9
▁500	-9
ley	-9
ally	-9
▁slow	-9
▁additional	-9
▁faced	-9
▁referendum	-9
▁keeping	-9
bn	-9
▁appeal	-9
▁civil	-9
ity	-9
▁agree	-9
▁explain	-9
▁daily	-9
▁X	-9
▁author	-9
son	-9
▁physical	-9
▁33	-9
▁proud	-9
▁mental	-9
▁nice	-9
▁accept	-9
▁Parliament	-9
▁option	-9
▁prepared	-9
▁Best	-9
▁row	-9
▁fifth	-9
▁department	-9
ies	-9
▁sitting	-9
▁Other	-9
▁Corbyn	-9
▁shirt	-9
▁scheme	-9
▁operation	-9
▁rising	-9
▁Bush	-9
▁design	-9
sisted	-9
▁reasons	-9
▁FA	-9
▁Jack	-9
▁reportedly	-9
▁placed	-9
▁assault	-9
▁union	-9
▁jump	-9
▁split	-9
▁wish	-9
▁progress	-9
▁lived	-9
▁boost	-9
▁trust	-9
▁affected	-9
▁rock	-9
▁responsible	-9
▁absolutely	-9
▁Canada	-9
▁addition	-9
▁sit	-9
▁crash	-9
▁onto	-9
▁band	-9
▁maybe	-9
▁Grand	-9
▁screen	-9
▁song	-9
▁faces	-9
▁sea	-9
▁photos	-9
▁award	-9
▁discovered	-9
▁warning	-9
▁charity	-9
▁overall	-9
▁speaking	-9
▁kick	-9
▁Taylor	-9
▁Home	-9
▁wore	-9
▁Over	-9
▁Year	-9
▁email	-9
▁plays	-9
▁generation	-9
▁check	-9
▁Nick	-9
▁Afghanistan	-9
▁Like	-9
▁striker	-9
▁34	-9
▁Can	-9
▁aware	-9
▁troops	-9
▁Charles	-9
▁direct	-9
▁reporters	-9
▁lawyer	-9
▁36	-9
ment	-9
▁fuel	-9
▁Palace	-9
▁pandemic	-9
▁reflect	-9
▁justice	-9
▁housing	-9
▁bottom	-9
▁gun	-9
▁policies	-9
▁clean	-9
▁et	-9
▁Super	-9
▁vehicle	-9
▁hasn	-9
▁leg	-9
▁semi	-9
▁mobile	-9
▁Committee	-9
▁favourite	-9
▁Italian	-9
▁Zealand	-9
▁Commission	-9
▁maintain	-9
▁bed	-9
▁peace	-9
▁pulled	-9
na	-9
▁committed	-9
▁V	-9
▁wear	-9
▁plenty	-9
▁restaurant	-9
▁sides	-9
▁Islamic	-9
▁intelligence	-9
▁secret	-9
▁strategy	-9
▁surgery	-9
▁scale	-9
▁stories	-9
▁mark	-9
▁Western	-9
▁suggest	-9
▁Speaking	-9
uk	-9
▁Simon	-9
▁male	-9
▁Fox	-9
▁Instead	-9
▁amazing	-9
▁Me	-9
▁park	-9
▁treated	-9
▁Sky	-9
▁accounts	-9
3	-9
▁views	-9
▁Victoria	-9
▁truth	-9
ation	-9
▁emerged	-9
▁limited	-9
▁aren	-9
or	-9
▁storm	-9
▁images	-9
We	-9
▁upon	-9
▁Hall	-9
▁flat	-9
▁struck	-9
▁airport	-9
▁Matt	-9
▁El	-9
▁deaths	-9
▁God	-9
▁balance	-9
▁quick	-9
▁responsibility	-9
▁status	-9
▁doctor	-9
▁produce	-9
▁island	-9
▁various	-9
▁advantage	-9
▁Post	-9
▁center	-9
▁finding	-9
▁defense	-9
▁pop	-9
▁behaviour	-9
▁critical	-9
▁younger	-9
▁cities	-9
▁profit	-9
▁edge	-9
▁features	-9
▁Tottenham	-9
▁language	-9
▁Service	-9
▁Air	-9
▁Brazil	-9
▁broken	-9
▁environment	-9
▁weapons	-9
▁deliver	-9
▁Championship	-9
▁healthy	-9
▁Getty	-9
▁guy	-9
ist	-9
▁du	-9
▁separate	-9
▁yourself	-9
▁commercial	-9
▁i	-9
▁primary	-9
▁Games	-9
▁streets	-9
▁cold	-9
▁Ed	-9
▁grow	-9
▁politicians	-9
▁estate	-9
▁feels	-9
▁expensive	-9
▁options	-9
▁picked	-9
▁giant	-9
▁activity	-9
▁birthday	-9
▁signs	-9
▁represent	-9
▁episode	-9
▁gain	-9
▁happens	-9
▁laws	-9
▁names	-9
▁dream	-9
▁pictures	-9
▁prove	-9
▁magazine	-9
▁des	-9
▁nature	-9
▁immigration	-9
▁failure	-9
▁unable	-9
▁Amazon	-9
▁Well	-9
▁Lewis	-9
▁produced	-9
▁request	-9
▁protest	-9
▁multiple	-9
▁bigger	-9
▁tweeted	-9
F	-9
▁thanks	-9
▁internet	-9
▁secure	-9
▁rich	-9
▁candidates	-9
▁Three	-9
▁supply	-9
▁Act	-9
▁typical	-9
▁Spanish	-9
▁wall	-9
▁Kevin	-9
▁trading	-9
▁decisions	-9
▁Yes	-9
▁Love	-9
▁radio	-9
ton	-9
▁arm	-9
▁suggests	-9
▁Inc	-9
▁enjoyed	-9
▁elections	-9
▁sleep	-9
te	-9
▁album	-9
▁necessary	-9
▁estimated	-9
▁profile	-9
▁effective	-9
K	-9
▁tests	-9
▁eat	-9
▁proposed	-9
▁extremely	-9
▁drama	-9
▁Pakistan	-9
▁unlikely	-9
▁camp	-9
▁poll	-9
▁â	-9
▁miss	-9
▁revenue	-9
▁struggling	-9
▁fired	-9
▁Institute	-9
▁dinner	-9
▁shop	-9
▁owned	-9
▁Chief	-9
▁identified	-9
▁Andy	-9
▁reform	-9
G	-10
▁supposed	-10
▁books	-10
▁suffering	-10
▁attract	-10
▁Turkey	-10
▁38	-10
▁Former	-10
▁ring	-10
▁largely	-10
▁2005	-10
▁lines	-10
▁Jeremy	-10
▁greatest	-10
▁introduced	-10
▁changing	-10
▁testing	-10
▁proved	-10
▁Because	-10
▁developed	-10
▁Road	-10
▁influence	-10
▁backed	-10
▁Security	-10
▁mass	-10
▁Women	-10
el	-10
▁stood	-10
▁talent	-10
▁handed	-10
▁recovery	-10
▁declared	-10
▁Irish	-10
▁Conservative	-10
▁complex	-10
▁rival	-10
▁Muslim	-10
▁les	-10
▁pace	-10
▁Let	-10
▁slightly	-10
▁ice	-10
▁actions	-10
▁owners	-10
▁length	-10
▁focused	-10
▁limit	-10
▁Stadium	-10
▁learned	-10
▁window	-10
▁falling	-10
▁hoping	-10
▁Leicester	-10
▁college	-10
▁Adam	-10
▁criticism	-10
▁declined	-10
▁trouble	-10
▁Chicago	-10
▁survey	-10
▁allegedly	-10
▁desperate	-10
▁meaning	-10
▁covered	-10
▁directly	-10
▁material	-10
▁conduct	-10
ne	-10
▁Club	-10
▁basis	-10
▁37	-10
▁app	-10
▁Daniel	-10
▁ruling	-10
▁buying	-10
▁drink	-10
▁Romney	-10
▁toward	-10
▁watched	-10
▁walking	-10
ch	-10
▁decide	-10
▁winter	-10
▁keen	-10
▁ordered	-10
▁standard	-10
▁measure	-10
▁note	-10
▁turning	-10
▁definitely	-10
▁voted	-10
▁announcement	-10
▁Old	-10
▁seriously	-10
▁strength	-10
▁Miss	-10
▁setting	-10
▁standards	-10
▁super	-10
▁Stephen	-10
▁arms	-10
▁Go	-10
▁dollars	-10
▁tells	-10
▁guys	-10
▁feature	-10
as	-10
▁votes	-10
▁university	-10
▁jail	-10
▁scoring	-10
▁UPI	-10
▁active	-10
▁Company	-10
▁spotted	-10
▁confident	-10
▁About	-10
▁Christian	-10
▁block	-10
▁welcome	-10
▁Ham	-10
▁records	-10
▁Good	-10
▁wonder	-10
▁ceremony	-10
▁bus	-10
▁mortgage	-10
▁Indian	-10
▁write	-10
▁artist	-10
▁CEO	-10
▁Olympics	-10
▁deals	-10
▁tend	-10
▁count	-10
land	-10
T	-10
▁walked	-10
▁rain	-10
▁sun	-10
▁Mourinho	-10
▁passengers	-10
▁corner	-10
▁protests	-10
▁Saudi	-10
▁determined	-10
▁content	-10
▁scheduled	-10
▁conflict	-10
▁mission	-10
▁completed	-10
▁Biden	-10
ia	-10
▁Syrian	-10
▁illegal	-10
▁Only	-10
▁suspect	-10
▁develop	-10
▁Jan	-10
▁church	-10
▁chances	-10
▁assets	-10
▁steps	-10
▁hurt	-10
▁agent	-10
is	-10
▁colleagues	-10
▁documents	-10
▁die	-10
▁bag	-10
ra	-10
▁Everton	-10
▁era	-10
▁PM	-10
▁Be	-10
▁firms	-10
▁pictured	-10
▁effects	-10
▁filed	-10
▁arrest	-10
▁reading	-10
▁wins	-10
▁systems	-10
▁soldiers	-10
▁legislation	-10
▁choose	-10
▁collection	-10
▁sources	-10
▁48	-10
▁Tour	-10
▁removed	-10
▁whatever	-10
▁Bay	-10
▁aircraft	-10
▁duty	-10
▁exchange	-10
▁Tim	-10
▁sentence	-10
▁gay	-10
▁Edinburgh	-10
▁Before	-10
▁thank	-10
▁wing	-10
▁scientists	-10
▁presence	-10
▁girlfriend	-10
▁communities	-10
ling	-10
▁blame	-10
▁Wall	-10
▁Rio	-10
▁Sea	-10
▁citizens	-10
▁risks	-10
▁Boris	-10
▁easily	-10
▁Anthony	-10
▁kill	-10
▁Young	-10
▁specific	-10
€	-10
▁42	-10
▁Kelly	-10
▁stick	-10
▁Photo	-10
▁freedom	-10
▁Newcastle	-10
▁delivered	-10
▁dad	-10
▁apparently	-10
▁computer	-10
▁Foreign	-10
▁worried	-10
▁wake	-10
▁operating	-10
▁beach	-10
▁emotional	-10
▁Putin	-10
▁unit	-10
▁royal	-10
▁traffic	-10
▁Nations	-10
▁grand	-10
▁carrying	-10
The	-10
▁starts	-10
▁potentially	-10
▁incredible	-10
▁inspired	-10
▁remaining	-10
ry	-10
▁Rose	-10
▁eating	-10
▁warm	-10
▁yards	-10
▁tru	-10
▁provid	-10
▁attended	-10
▁+	-10
▁mum	-10
▁patient	-10
▁opinion	-10
▁elected	-10
▁Central	-10
▁claiming	-10
▁grew	-10
▁cool	-10
▁smaller	-10
▁Earlier	-10
▁signing	-10
▁mostly	-10
▁Your	-10
▁seats	-10
▁crew	-10
▁Once	-10
▁shopping	-10
▁vehicles	-10
▁Israeli	-10
▁fees	-10
▁ill	-10
▁aim	-10
▁counter	-10
▁recorded	-10
▁1,000	-10
▁shape	-10
▁protection	-10
▁initial	-10
▁urged	-10
▁Louis	-10
▁army	-10
▁retirement	-10
▁breaking	-10
▁fee	-10
▁earned	-10
▁fly	-10
▁heat	-10
▁founder	-10
▁alcohol	-10
▁2004	-10
▁pool	-10
▁platform	-10
▁midfielder	-10
▁closer	-10
▁opportunities	-10
ism	-10
▁expert	-10
▁shock	-10
▁respond	-10
▁moments	-10
▁tie	-10
▁negative	-10
▁nearby	-10
▁apart	-10
▁Ukraine	-10
▁Beijing	-10
▁serving	-10
▁ruled	-10
▁obviously	-10
▁Hospital	-10
▁ABC	-10
▁individuals	-10
▁Army	-10
▁projects	-10
▁wind	-10
▁pour	-10
▁Research	-10
▁footage	-10
▁unique	-10
▁sharing	-10
▁hole	-10
▁responded	-10
▁Show	-10
▁College	-10
▁Also	-10
▁busy	-10
▁reduced	-10
▁conversation	-10
▁joint	-10
▁Jordan	-10
▁manage	-10
▁exercise	-10
▁tennis	-10
b	-10
▁task	-10
▁journey	-10
▁75	-10
▁vast	-10
▁vice	-10
▁sat	-10
▁interested	-10
▁west	-10
▁Jackson	-10
▁wine	-10
▁fat	-10
▁suicide	-10
▁Asia	-10
▁activities	-10
▁experienced	-10
la	-10
▁Mary	-10
▁degree	-10
▁heading	-10
▁possibly	-10
▁seconds	-10
▁science	-10
▁Awards	-10
▁session	-10
▁transport	-10
▁Channel	-10
▁attorney	-10
▁honest	-10
▁consumers	-10
▁Hamilton	-10
▁regime	-10
▁items	-10
▁interesting	-10
▁featured	-10
▁acting	-10
▁Alan	-10
▁tested	-10
▁taxes	-10
▁Barack	-10
▁wonderful	-10
▁pointed	-10
▁shots	-10
▁professor	-10
▁compete	-10
▁headed	-10
▁leaves	-10
▁shut	-10
▁promised	-10
▁learning	-10
E	-10
▁Justin	-10
▁rugby	-10
▁coverage	-10
▁Earth	-10
▁boyfriend	-10
▁Island	-10
▁noted	-10
▁opt	-10
▁east	-10
▁resources	-10
▁banned	-10
▁spring	-10
▁Chancellor	-10
▁Dan	-10
▁parliament	-10
▁stands	-10
▁consumer	-10
▁scandal	-10
▁afford	-10
▁pushed	-10
▁article	-10
▁controversial	-10
▁drivers	-10
P	-10
▁bodies	-10
▁Ali	-10
▁challenges	-10
▁armed	-10
▁COVID	-10
▁terror	-10
▁violent	-10
▁existing	-10
▁plant	-10
▁relief	-10
▁defender	-10
▁fears	-10
▁panel	-10
▁treat	-10
to	-10
▁protesters	-10
▁rally	-10
▁rivals	-10
ier	-10
▁300	-10
▁attend	-10
▁achieve	-10
▁2000	-10
▁Every	-10
▁happening	-10
▁39	-10
▁surprised	-10
▁creating	-10
▁flying	-10
▁Korean	-10
▁55	-10
▁49	-10
▁coalition	-10
▁coast	-10
▁Mo	-10
▁Gold	-10
f	-10
▁skills	-10
▁sought	-10
▁construction	-10
▁Centre	-10
ty	-10
▁initially	-10
▁stores	-10
▁customer	-10
▁negotiations	-10
▁northern	-10
▁dating	-10
▁impressive	-10
▁returning	-10
▁none	-10
▁severe	-10
▁conservative	-10
▁Z	-10
▁Theresa	-10
▁c	-10
▁Supreme	-10
▁cap	-10
▁considering	-10
▁finals	-10
▁statements	-10
M	-10
▁friendly	-10
▁viewers	-10
▁entirely	-10
▁broad	-10
▁supported	-10
▁dollar	-10
▁Davis	-10
▁knee	-10
▁Coast	-10
▁capacity	-10
▁finance	-10
▁catch	-10
ary	-10
▁earnings	-10
▁encourage	-10
▁deeply	-10
▁easier	-10
▁circumstances	-10
▁silver	-10
▁savings	-10
▁governor	-10
▁Life	-10
▁payments	-10
il	-10
▁animals	-10
▁direction	-10
▁Japanese	-10
▁dance	-10
▁44	-10
▁Federal	-10
▁wild	-10
▁crucial	-10
▁southern	-10
▁ongoing	-10
▁accident	-10
▁religious	-10
▁vulnerable	-10
▁unles	-10
▁driven	-10
▁writer	-10
▁van	-10
▁commitment	-10
▁ship	-10
▁struggle	-10
▁sites	-10
▁proposal	-10
▁65	-10
▁vs	-10
▁extend	-10
▁Sarah	-10
refore	-10
▁tiny	-10
▁worry	-10
▁pregnant	-10
▁smart	-10
▁messages	-10
▁larger	-10
▁suspended	-10
▁nor	-10
▁Still	-10
▁established	-10
▁path	-10
▁Moscow	-10
▁square	-10
▁Q	-10
▁o	-10
▁raising	-10
▁earn	-10
▁Sen	-10
▁visitors	-10
▁terrorist	-10
▁interests	-10
▁Carolina	-10
▁reporting	-10
▁Football	-10
▁digital	-10
▁y	-10
▁Top	-10
▁approved	-10
▁developing	-10
▁ride	-10
▁cutting	-10
▁Khan	-10
▁Osborne	-10
▁youth	-10
▁district	-10
▁Kong	-10
▁Team	-10
▁knowledge	-10
▁Middle	-10
▁reputation	-10
▁Time	-10
▁inflation	-10
▁solution	-10
▁wave	-10
▁animal	-10
7	-10
▁corporate	-10
▁Up	-10
▁Hong	-10
▁films	-10
▁Glasgow	-10
▁mistake	-10
▁41	-10
▁comfortable	-10
▁reveal	-10
▁filled	-10
▁ministers	-10
▁legs	-10
▁distance	-10
▁favour	-10
rs	-10
▁glass	-10
▁Wilson	-10
▁2003	-10
▁reaction	-10
▁publicly	-10
▁impossible	-10
▁voting	-10
▁Oscar	-10
J	-10
▁formal	-10
▁Back	-10
▁grown	-10
▁failing	-10
▁brilliant	-10
▁golf	-10
▁equipment	-10
▁dramatic	-10
▁yes	-10
▁Hillary	-10
▁fish	-10
▁assistant	-10
▁perform	-10
▁copyright	-10
▁vital	-10
▁widely	-10
▁Van	-10
▁Greece	-10
▁competitive	-10
▁understood	-10
▁bomb	-10
▁pink	-10
▁supporting	-10
▁ones	-10
▁stunning	-10
▁spokeswoman	-10
▁analysis	-10
▁danger	-10
▁causing	-10
▁43	-10
▁alternative	-10
▁unusual	-10
▁imagine	-10
▁brief	-10
6	-10
▁hits	-10
▁remove	-10
▁provides	-10
5	-10
▁excited	-10
▁document	-10
da	-10
▁celebrate	-10
▁symptoms	-10
▁repeatedly	-10
▁argued	-10
▁tackle	-10
Y	-10
▁UN	-10
▁Sports	-10
▁shortly	-10
▁Ask	-10
▁rejected	-10
▁possibility	-10
ft	-10
▁studies	-10
▁forget	-10
▁retail	-10
▁text	-10
▁Media	-10
▁nations	-10
▁relatively	-10
▁flights	-10
▁stress	-10
▁bedroom	-10
▁Morgan	-10
▁ending	-10
▁Jamie	-10
Credit	-10
▁FBI	-10
▁false	-10
▁District	-10
▁Having	-10
▁Tories	-10
▁village	-10
▁Brussels	-10
▁argument	-10
▁heads	-10
▁authority	-10
▁Frank	-10
▁basic	-10
▁loans	-10
▁lawyers	-10
▁immediate	-10
▁cricket	-10
▁pounds	-10
▁lucky	-10
▁threatened	-10
▁restrictions	-10
▁disaster	-10
▁mere	-10
▁shift	-10
▁Virginia	-10
▁Georgia	-10
▁blow	-10
▁chain	-10
▁rescue	-10
▁genuine	-10
▁findings	-10
▁visited	-10
▁neck	-10
▁tight	-10
▁teacher	-10
▁1990	-10
▁receiv	-10
▁Professor	-10
▁delivery	-10
▁steppe	-10
▁losses	-10
▁route	-10
▁continuing	-10
▁understanding	-10
▁Oh	-10
▁tonight	-10
▁zone	-10
▁gap	-10
▁ideas	-10
â	-10
▁Jose	-10
▁Lady	-10
▁Images	-10
▁turns	-10
ant	-10
H	-10
▁accepted	-10
▁defend	-10
▁Long	-10
▁Out	-10
▁snap	-10
▁Bridge	-10
▁fraud	-10
▁contributed	-10
way	-10
▁ticket	-10
▁fallen	-10
▁horse	-10
ner	-10
▁shoulder	-10
▁historic	-10
▁Ford	-10
▁otherwise	-10
▁drinking	-10
▁presented	-10
▁apply	-10
▁47	-10
▁retired	-10
▁passing	-10
▁Philip	-10
▁package	-10
▁regard	-10
▁46	-10
ur	-10
▁memory	-10
▁guests	-10
▁Treasury	-10
▁Public	-10
▁programs	-10
▁classic	-10
▁diet	-10
▁Sanders	-10
▁polls	-10
▁contest	-10
▁lay	-10
▁inquiry	-10
▁USA	-10
▁Gary	-10
▁deputy	-10
▁independence	-10
▁teachers	-10
▁willing	-10
▁ISIS	-10
▁regularly	-10
men	-10
▁Canadian	-10
▁Four	-10
▁adults	-10
▁snow	-10
▁faith	-10
▁relations	-10
▁Jennifer	-10
▁replace	-10
▁indeed	-10
▁sanctions	-10
▁matters	-10
▁sending	-10
▁fewer	-10
▁Charlie	-10
▁weren	-10
▁performed	-10
▁obvious	-10
▁Game	-10
▁PR	-10
L	-10
▁heavily	-10
▁cell	-10
▁entered	-10
▁gender	-10
▁tied	-10
▁Evans	-10
▁exit	-10
▁tomorrow	-10
▁boat	-10
▁400	-10
▁affect	-10
▁convicted	-10
▁Boston	-10
▁Jim	-10
▁Wimbledon	-10
▁familiar	-10
▁adds	-10
▁terrorism	-10
▁Blue	-10
▁cells	-10
▁cards	-10
▁agencies	-10
▁Radio	-10
▁Ronaldo	-10
▁promise	-10
ten	-10
▁athletes	-10
▁regional	-10
▁kitchen	-10
▁involving	-10
▁escape	-10
▁http	-10
▁returns	-10
▁notice	-10
▁alive	-10
ler	-10
▁sick	-10
▁Little	-10
▁clash	-10
▁sweet	-10
▁decline	-10
▁machine	-10
▁harder	-10
▁partners	-10
▁organization	-10
▁Among	-10
▁scenes	-10
▁location	-10
▁throw	-10
▁Associated	-10
▁critics	-10
▁starr	-10
▁surface	-10
▁multi	-10
▁Brian	-10
▁Villa	-10
▁clothes	-10
▁Rangers	-10
▁hate	-10
▁Perhaps	-10
▁Graham	-10
▁minimum	-10
▁Euro	-10
▁Beach	-10
▁Egypt	-10
▁producer	-10
▁prompt	-10
▁sad	-10
▁Foundation	-10
▁spoken	-10
▁essential	-10
▁festival	-10
di	-10
▁struggled	-10
▁Blair	-10
▁conducted	-10
▁generally	-10
▁­	-10
▁Jason	-10
▁Miami	-10
▁upset	-10
▁link	-10
▁excellent	-10
▁Birmingham	-10
▁attacked	-10
▁device	-10
▁talked	-10
▁Republic	-10
▁garden	-10
▁Gordon	-10
▁dressed	-10
▁managers	-10
▁medal	-10
▁soft	-10
▁Ian	-10
▁judges	-10
ni	-10
▁stadium	-10
▁lockdown	-10
▁beating	-10
▁improved	-10
▁angry	-10
w	-10
▁Cook	-10
▁plastic	-10
▁likes	-10
▁division	-10
▁please	-10
▁ultimately	-10
▁factor	-10
un	-10
▁extended	-10
▁sixth	-10
▁bright	-10
▁remind	-10
▁Six	-10
ssociated	-10
▁exciting	-10
um	-10
ever	-10
▁involve	-10
▁Cruz	-10
▁everybody	-10
▁anniversary	-10
▁targeted	-10
▁prior	-10
▁drawn	-10
▁Asian	-10
▁contrast	-10
▁guard	-10
▁Francisco	-10
▁designer	-10
▁enter	-10
au	-10
▁core	-10
▁Pro	-10
▁Lions	-10
▁connection	-10
▁Covid	-10
▁Phil	-10
▁2001	-10
▁stuck	-10
▁staying	-10
ta	-10
▁apartment	-10
▁extraordinary	-10
▁Nov	-10
▁hat	-10
▁suspected	-10
▁Ross	-10
▁attempted	-10
▁II	-10
▁2002	-10
▁Judge	-10
▁Force	-10
▁democracy	-10
▁replied	-10
▁effectively	-10
ian	-10
▁dogs	-10
▁Commons	-10
▁expectations	-10
▁identity	-10
▁calm	-10
▁quiet	-10
ma	-10
▁desire	-10
▁agents	-10
ka	-10
▁followers	-10
▁Mar	-10
▁user	-10
▁carpet	-10
▁Financial	-10
▁Cambridge	-10
▁Dec	-10
▁Bob	-10
▁index	-10
▁overseas	-10
▁NFL	-10
▁mayor	-10
▁combined	-10
▁tweet	-10
▁yellow	-10
▁Live	-10
▁frame	-10
▁extreme	-10
▁cultural	-10
▁Where	-10
▁banking	-10
▁targets	-10
ey	-10
▁mention	-10
▁corruption	-10
▁Agency	-10
▁blonde	-10
▁shouldn	-10
▁coffee	-10
▁stayed	-10
▁moves	-10
▁trend	-10
▁reveals	-10
▁replaced	-10
▁Moore	-10
by	-10
▁appropriate	-10
▁enforcement	-10
▁Internet	-10
▁structure	-10
▁Are	-10
▁environmental	-10
▁150	-10
▁occurred	-10
▁closing	-10
▁prize	-10
nd	-10
▁section	-10
▁b	-10
▁crimes	-10
▁devices	-10
O	-10
ter	-10
▁sorry	-10
▁Eric	-10
▁values	-10
▁infrastructure	-10
▁beaten	-10
▁Picture	-10
▁jury	-10
▁Josh	-10
▁Un	-10
▁Laura	-10
▁pushing	-10
▁mix	-10
▁novel	-10
▁offensive	-10
▁rape	-10
▁journalist	-10
▁tribute	-10
▁Jr	-10
▁editor	-10
▁fought	-10
▁closely	-10
▁Director	-10
▁organisation	-10
▁attempts	-10
▁Church	-10
▁suddenly	-10
▁stronger	-10
▁vision	-10
▁worker	-10
▁purchase	-10
▁species	-10
▁exposed	-10
▁approval	-10
▁harm	-10
▁sharp	-10
▁houses	-10
▁winners	-10
▁opposite	-10
▁holds	-10
▁joining	-10
▁factors	-10
▁hitting	-10
▁Indeed	-10
▁chose	-10
▁Men	-10
▁intended	-10
▁veteran	-10
▁luxury	-10
field	-10
▁facilities	-10
▁Miller	-10
▁Henry	-10
▁transition	-10
▁terrible	-10
▁Though	-10
▁52	-10
▁shoot	-10
▁aside	-10
▁tickets	-10
▁awards	-10
▁10,000	-10
▁Celtic	-10
▁chair	-10
▁industrial	-10
▁forecast	-10
▁Messi	-10
▁deficit	-10
▁aimed	-10
▁Westminster	-10
▁posed	-10
▁racing	-10
▁pieces	-10
▁characters	-10
▁background	-10
▁analysts	-10
▁opponents	-10
ned	-10
▁bench	-10
▁Pacific	-10
▁saved	-10
▁identify	-10
▁listed	-10
▁comedy	-10
▁properly	-10
▁prospect	-10
▁champions	-10
▁bills	-10
▁commission	-10
▁captured	-10
▁significantly	-10
▁Golden	-10
▁lunch	-10
▁Re	-10
▁flag	-10
▁lawsuit	-10
▁planet	-10
▁fantastic	-10
▁tears	-10
▁spirit	-10
▁Princess	-10
▁hoped	-10
▁dealing	-10
▁Craig	-10
▁colour	-10
▁Elizabeth	-10
▁payment	-10
▁summit	-10
▁celebrity	-10
▁Harris	-10
▁crack	-10
▁Patrick	-10
▁occasion	-10
▁waste	-10
▁1980	-10
▁illness	-10
▁ourselves	-10
▁outcome	-10
▁investigating	-10
▁sees	-10
▁studio	-10
▁abroad	-10
▁saving	-10
▁elsewhere	-10
▁tech	-10
▁Festival	-10
▁honour	-10
▁100,000	-10
▁mate	-10
▁Valley	-10
▁tree	-10
▁Watson	-10
▁capable	-10
▁funny	-10
▁Business	-10
▁musical	-10
▁barely	-10
▁engaged	-10
▁Queensland	-10
▁hadn	-10
▁causes	-10
▁Las	-10
at	-10
▁sporting	-10
▁outbreak	-10
▁helps	-10
▁argue	-10
▁trained	-10
▁worldwide	-10
▁dry	-10
▁models	-10
▁adviser	-10
▁solid	-10
▁meat	-10
▁Jonathan	-10
ce	-10
▁surge	-10
▁Democrat	-10
▁Trust	-10
▁powers	-10
▁realise	-10
▁surrounding	-10
▁activists	-10
▁determine	-10
▁fiscal	-10
▁Global	-10
▁Brisbane	-10
▁River	-10
▁empty	-10
▁NSW	-10
▁Michelle	-10
ri	-10
▁Oct	-10
▁leads	-10
▁hardly	-10
▁GOP	-10
▁demands	-10
▁governments	-10
▁Ohio	-10
▁affair	-10
os	-10
▁neither	-10
▁advance	-10
▁regulator	-10
▁importance	-10
▁Taliban	-10
8	-10
▁bond	-10
▁fame	-10
▁software	-10
▁Vegas	-10
▁Fire	-10
▁sugar	-10
▁priority	-10
▁buildings	-10
▁confirm	-10
▁properties	-10
▁fitness	-10
▁fake	-10
▁facility	-10
▁consequences	-10
▁code	-10
▁depend	-10
de	-10
▁Family	-10
▁journalists	-10
▁euro	-10
▁arrival	-10
one	-10
▁dozen	-10
▁brings	-10
▁lift	-10
▁Jersey	-10
▁Dave	-10
▁currency	-10
▁Energy	-10
▁orders	-10
▁Walker	-10
▁jacket	-10
▁songs	-10
▁dismissed	-10
▁selection	-10
▁teenager	-10
▁controlled	-10
▁clients	-10
▁threatening	-10
▁lots	-10
▁54	-10
▁profits	-10
▁Anderson	-10
▁combat	-10
▁Maybe	-10
ent	-10
▁Steven	-10
▁Di	-10
▁uses	-10
▁totally	-10
▁prepare	-10
▁Children	-10
▁seasons	-10
▁thinks	-10
▁migrants	-10
▁invest	-10
▁ties	-10
▁purpose	-10
▁reaching	-10
▁unemployment	-10
▁begins	-10
▁originally	-10
▁Alexander	-10
▁CBS	-10
▁complaints	-10
▁wealth	-10
▁disappointed	-10
▁parent	-10
▁marked	-10
W	-10
▁hospitals	-10
▁51	-10
▁intense	-10
▁divorce	-10
▁equal	-10
▁pound	-10
▁Sport	-10
▁tea	-10
▁Emma	-10
▁expecting	-10
▁deny	-10
▁restaurants	-10
▁Academy	-10
id	-10
ine	-10
lin	-10
▁threats	-10
it	-10
▁chosen	-10
▁switch	-10
ized	-10
▁Get	-10
▁recalled	-10
ro	-10
ish	-10
▁discussed	-10
▁53	-10
▁visiting	-10
hrew	-10
▁achieved	-10
▁laid	-10
▁appointed	-10
▁defensive	-10
▁Iranian	-10
▁notes	-10
▁cream	-10
▁carbon	-10
▁fill	-10
▁travelling	-10
▁proper	-10
▁cameras	-10
▁Argentina	-10
▁percentage	-10
▁mixed	-10
▁Rooney	-10
▁performances	-10
▁Arab	-10
▁Bar	-10
▁electric	-10
▁invited	-10
▁atmosphere	-10
▁buyers	-10
▁Jeff	-10
▁territory	-10
▁Hotel	-10
▁attacking	-10
▁establish	-10
▁explains	-10
▁vaccine	-10
▁recession	-10
▁Human	-10
▁meetings	-10
R	-10
▁updated	-10
▁YouTube	-10
▁badly	-10
▁resort	-10
▁mine	-10
▁lawmakers	-10
▁Jimmy	-10
▁writes	-10
▁technical	-10
▁incredibly	-10
▁Duke	-10
▁OK	-10
▁agenda	-10
▁analyst	-10
▁pilot	-10
▁Thompson	-10
▁native	-10
▁stake	-10
▁positions	-10
▁mail	-10
▁Rob	-10
▁peak	-10
▁promote	-10
▁Mayor	-10
▁guess	-10
▁internal	-10
▁discussion	-10
He	-10
▁Services	-10
▁Ministry	-10
▁blast	-10
▁prepar	-10
▁Car	-10
▁aggressive	-10
▁thrown	-10
▁Which	-10
▁questioned	-10
▁actual	-10
▁Crown	-10
▁performing	-10
▁wage	-10
age	-10
▁dozens	-10
▁Diego	-10
▁drove	-10
▁knowing	-10
▁marketing	-10
▁detail	-10
▁ITV	-10
▁Terry	-10
▁institutions	-10
▁anger	-10
▁prosecutors	-10
▁custody	-10
▁MailOnline	-10
▁Editing	-10
▁titles	-10
▁instance	-10
▁championship	-10
▁mood	-10
▁suggesting	-10
▁shocked	-10
▁Money	-10
▁narrow	-10
▁striking	-10
▁follows	-10
▁belief	-10
▁	-10
▁videos	-10
▁western	-10
▁Danny	-10
▁infection	-10
▁Telegraph	-10
▁opposed	-10
▁LA	-10
▁eastern	-10
▁featuring	-10
▁elite	-10
▁stated	-10
▁anywhere	-10
▁Wenger	-10
▁witness	-10
et	-10
▁allies	-10
▁welcomed	-10
▁roll	-10
▁rooms	-10
▁shoes	-10
▁Arizona	-10
▁yard	-10
▁directed	-10
▁bear	-10
▁gift	-10
▁hero	-10
▁radical	-10
▁broadcast	-10
▁plead	-10
▁collapse	-10
▁adult	-10
▁romance	-10
▁doors	-10
▁listen	-10
▁Feb	-10
▁Abbott	-10
▁concluded	-10
▁Diana	-10
▁bottle	-10
20	-10
▁Iraqi	-10
▁Disney	-10
▁correct	-10
▁artists	-10
▁mile	-10
▁permanent	-10
▁Senator	-10
▁advertising	-10
▁appearances	-10
▁loose	-10
▁rely	-10
▁Reporting	-10
▁sounds	-10
▁Board	-10
▁granted	-10
ha	-10
▁welfare	-10
▁Port	-10
▁Capital	-10
▁Watch	-10
▁tries	-10
▁shadow	-10
▁Corp	-10
ak	-10
▁Sweden	-10
▁sets	-10
▁schedule	-10
▁Medical	-10
▁perfectly	-10
▁drew	-10
▁Greek	-10
▁smile	-10
▁salary	-10
▁Airport	-10
▁pleased	-10
▁decent	-10
▁mouth	-10
▁lies	-10
▁Berlin	-10
▁Such	-10
▁boast	-10
▁airline	-10
▁Labor	-10
▁Portugal	-10
▁upcoming	-10
▁Jo	-10
▁partnership	-10
▁joke	-10
▁flow	-10
▁Cardiff	-10
▁increases	-10
▁taste	-10
▁Rock	-10
ir	-10
▁earth	-10
▁Cabinet	-10
▁maximum	-10
▁guide	-10
▁creative	-10
▁56	-10
▁arrive	-10
▁nobody	-10
▁Southern	-10
▁historical	-10
▁Sunderland	-10
▁outfit	-10
▁contacted	-10
▁delay	-10
▁absence	-10
▁newly	-10
▁affairs	-10
▁employment	-10
▁managing	-10
▁Next	-10
▁Budget	-10
▁fixed	-10
▁fighters	-10
▁Afghan	-10
▁celebrated	-10
▁fail	-10
▁Arabia	-10
▁complaint	-10
▁trees	-10
▁iPhone	-10
▁1.5	-10
▁behalf	-10
▁filming	-10
▁Palestinian	-10
▁Take	-10
▁Wood	-10
▁Ken	-10
▁channel	-10
▁sentenced	-10
▁prefer	-10
▁gang	-10
▁sight	-10
▁Turkish	-10
▁departure	-10
▁strikes	-10
▁dispute	-10
▁Video	-10
▁Milan	-10
▁weak	-10
▁Southampton	-10
▁Santa	-10
▁Guardian	-10
▁Five	-10
ko	-10
▁healthcare	-10
▁59	-10
▁57	-10
▁compensation	-10
▁diagnosed	-10
▁meanwhil	-10
▁truck	-10
▁temperatures	-10
▁smoke	-10
▁registered	-10
▁wider	-10
▁Following	-10
▁letters	-10
▁pregnancy	-10
▁hosts	-10
▁depression	-10
▁Netflix	-10
▁farm	-10
do	-10
▁puts	-10
▁Right	-10
▁demonstrate	-10
▁Second	-10
▁draft	-10
▁singing	-10
▁Square	-10
▁Liam	-10
▁spokesperson	-10
▁concert	-10
▁plot	-10
▁Houston	-10
▁elderly	-10
▁Power	-10
▁cheap	-10
▁End	-10
▁represents	-10
▁Museum	-10
▁Credit	-10
▁Max	-10
▁grounds	-10
▁Society	-10
▁Li	-10
▁n	-10
▁province	-10
▁Law	-10
▁challenging	-10
▁Matthew	-10
▁Roger	-10
ina	-10
▁faster	-10
▁strange	-10
▁Michigan	-10
▁strongly	-10
▁ends	-10
▁variety	-10
▁handle	-10
▁entertainment	-10
▁household	-10
▁lovely	-10
▁SNP	-10
▁shops	-10
▁quit	-10
▁Everyone	-10
▁Bell	-10
▁remarks	-10
▁recall	-10
▁movies	-10
▁except	-10
▁NBC	-10
▁speculation	-10
▁reforms	-10
▁Bowl	-10
▁NBA	-10
▁Lisa	-10
ke	-10
led	-10
▁roughly	-10
▁zero	-10
▁entry	-10
▁Social	-10
▁informed	-10
▁refugees	-10
▁gathered	-10
▁Town	-10
▁Charlotte	-10
▁dedicated	-10
▁destroyed	-10
▁suffer	-10
▁unclear	-10
▁opponent	-10
▁investigators	-10
▁gained	-10
▁emissions	-10
▁Night	-10
billion	-10
▁72	-10
▁deadly	-10
▁58	-10
▁reporter	-10
▁Music	-10
▁Kennedy	-10
▁Wayne	-10
▁Warren	-10
▁plants	-10
▁Look	-10
▁awarded	-10
▁childhood	-10
▁Free	-10
▁joy	-10
▁Fed	-10
▁fix	-10
▁blamed	-10
▁application	-10
▁00	-10
▁Swansea	-10
V	-10
▁Y	-10
▁minor	-10
▁extent	-10
▁Joshua	-10
▁seeming	-10
▁delighted	-10
▁acts	-10
▁equivalent	-10
▁predicted	-10
▁Costa	-10
▁combination	-10
▁passenger	-10
▁remarkable	-10
▁Liberal	-10
▁enormous	-10
▁Award	-10
▁types	-10
▁Seattle	-10
▁lowest	-10
▁1970	-10
▁Neil	-10
▁damaged	-10
▁militants	-10
▁Allen	-10
▁brutal	-10
▁Jay	-10
▁Nicole	-10
▁breast	-10
▁Maria	-10
▁clip	-10
▁settlement	-10
▁guest	-10
▁equity	-10
▁outstanding	-10
▁Woods	-10
▁cup	-10
▁lying	-10
▁realised	-10
▁survive	-10
▁Luke	-10
▁lady	-10
▁admits	-10
▁cat	-10
▁criticised	-10
▁Ferguson	-10
▁possession	-10
j	-10
▁documentary	-10
▁referred	-10
▁Jewish	-10
▁milk	-10
▁Kardashian	-10
▁proposals	-10
▁stone	-10
▁widespread	-10
▁missile	-10
▁regarding	-10
▁acknowledged	-10
▁gym	-10
▁Rep	-10
▁Art	-10
▁routine	-10
▁numero	-10
▁employee	-10
▁attitude	-10
▁Meghan	-10
▁Sean	-10
▁ease	-10
▁Jean	-10
▁Gov	-10
org	-10
▁overnight	-10
▁kid	-10
▁venue	-10
▁destroy	-10
▁estimates	-10
▁Fund	-10
▁pledge	-10
▁lie	-10
▁Lake	-10
▁Ten	-10
▁Federer	-10
▁jailed	-10
▁advanced	-10
▁encouraged	-10
▁Jon	-10
▁apparent	-10
▁Belgium	-10
▁Switzerland	-10
▁ideal	-10
▁poverty	-10
▁county	-10
▁manner	-10
▁convinced	-10
▁goalkeeper	-10
▁presenter	-10
▁regulations	-10
▁McCain	-10
ca	-10
▁jet	-10
▁Jessica	-10
▁anyway	-10
▁Clarke	-10
▁afraid	-10
▁connected	-10
▁qui	-10
▁mates	-10
▁personality	-10
▁investigate	-10
▁shocking	-10
▁file	-10
▁heels	-10
▁Roy	-10
▁dans	-10
▁roads	-10
▁crazy	-10
▁boots	-10
▁stocks	-10
▁Far	-10
▁applied	-10
▁Rugby	-10
▁mentioned	-10
▁chest	-10
▁yn	-10
▁packed	-10
▁grey	-10
▁Each	-10
▁Leeds	-10
▁64	-10
▁que	-10
▁capture	-10
▁duo	-10
▁Assad	-10
▁kicked	-10
▁Russell	-10
▁Yorkshire	-10
▁normally	-10
ov	-10
▁Perry	-10
▁Iowa	-10
▁master	-10
▁breakfast	-10
▁insists	-10
den	-10
▁demanding	-10
▁Brazilian	-10
▁racist	-10
▁equally	-10
▁trick	-10
▁racial	-10
▁coaches	-10
▁Attorney	-10
▁nervous	-10
▁Spurs	-10
▁seventh	-10
▁defending	-10
▁brave	-10
▁links	-10
ive	-10
der	-10
▁reference	-10
▁sparked	-10
▁boxing	-10
▁comfort	-10
▁roles	-10
▁=	-10
▁_	-10
▁une	-10
▁revealing	-10
▁scores	-10
▁somebody	-10
ance	-10
▁swimming	-10
▁Uber	-10
▁wounded	-10
▁emerging	-10
▁recovered	-10
▁innings	-10
▁Hammond	-10
▁Aug	-10
▁Simpson	-10
▁Mac	-10
▁tourists	-10
▁66	-10
▁bars	-10
ad	-10
▁contracts	-10
▁Bayern	-10
ford	-10
▁engine	-10
▁Swiss	-10
▁located	-10
▁assistance	-10
▁appointment	-10
▁engagement	-10
▁Antonio	-10
▁finds	-10
ham	-10
▁fatal	-10
▁Cooper	-10
▁spell	-10
ol	-10
▁ambassador	-10
▁controversy	-10
no	-10
▁2,000	-10
ous	-10
▁temporary	-10
▁string	-10
▁Market	-10
ul	-10
▁rent	-10
▁somewhere	-10
▁68	-10
▁jeans	-10
▁Libya	-10
ge	-10
▁Any	-10
▁Eastern	-10
▁pack	-10
▁announce	-10
▁replacement	-10
▁quote	-10
▁noticed	-10
▁62	-10
▁utter	-10
▁consecutive	-10
▁stable	-10
▁golden	-10
▁Welsh	-10
▁Dutch	-10
▁stolen	-10
▁odds	-10
▁liberal	-10
▁specialist	-10
▁Duchess	-10
▁sensitive	-10
▁romantic	-10
▁unknown	-10
▁privacy	-10
▁chemical	-10
▁gown	-10
▁thoughts	-10
v	-10
▁recover	-10
wood	-10
▁odd	-10
▁Poland	-10
ja	-10
▁Per	-10
▁Stewart	-10
▁Education	-10
▁discover	-10
▁Anna	-10
▁dressing	-10
▁guarantee	-10
▁publication	-10
▁Atlantic	-10
▁keeps	-10
▁latter	-10
▁entering	-10
▁referr	-10
li	-10
▁Oxford	-10
▁clinical	-10
▁Given	-10
▁Others	-10
ek	-10
▁gains	-10
▁AFP	-10
▁relationships	-10
▁Project	-10
▁Commonwealth	-10
▁Local	-10
▁Seven	-10
▁minority	-10
▁rail	-10
▁slowly	-10
▁babies	-10
Newswire	-10
▁moral	-10
▁teaching	-10
▁phones	-10
▁tank	-10
▁executives	-10
▁passes	-10
▁67	-10
▁expand	-10
▁fruit	-10
▁feed	-10
▁1999	-10
▁impressed	-10
▁surround	-10
▁cycle	-10
▁legend	-10
▁dominated	-10
▁pot	-10
▁reduc	-10
▁landed	-10
▁favorite	-10
▁Ex	-10
▁fundamental	-10
▁formed	-10
ard	-10
▁FIFA	-10
▁daughters	-10
▁luck	-10
▁begun	-10
llowing	-10
▁praised	-10
▁Adelaide	-10
▁nomination	-10
▁label	-10
▁Sanchez	-10
▁improving	-10
▁politician	-10
▁mom	-10
▁Mel	-10
▁ordinary	-10
▁Defense	-10
▁Rights	-10
▁Mexican	-10
▁finishing	-10
▁marks	-10
▁69	-10
▁founded	-10
▁expects	-10
▁detailed	-10
▁actors	-10
▁discussions	-10
▁referee	-10
▁advised	-10
▁retain	-10
▁guidance	-10
rd	-10
▁officially	-10
▁disappointing	-10
▁march	-10
▁Brad	-10
▁expenses	-10
▁Stone	-10
▁remote	-10
▁passion	-10
▁trophy	-10
▁complained	-10
▁pub	-10
▁electricity	-10
▁mask	-10
▁funded	-10
▁behavior	-10
▁rebels	-10
▁Howard	-10
▁clothing	-10
▁flu	-10
▁brown	-10
▁reduction	-10
▁thin	-10
▁backing	-10
▁Week	-10
▁roof	-10
▁drinks	-10
▁teenage	-10
▁leather	-10
▁Francis	-10
▁print	-10
▁liked	-10
▁coat	-10
▁sub	-10
min	-10
▁recognise	-10
▁immigrants	-10
▁anxiety	-10
▁spin	-10
▁85	-10
▁THE	-10
▁temperature	-10
▁practical	-10
▁personnel	-10
▁tragedy	-10
▁Anne	-10
▁moon	-10
▁counts	-10
▁delayed	-10
X	-10
▁promises	-10
▁stations	-10
▁bridge	-10
▁silence	-10
▁hundred	-10
▁theory	-10
▁uncertainty	-10
▁Election	-10
▁Wright	-10
▁meal	-10
▁insist	-10
▁midfield	-10
▁lights	-10
▁stretch	-10
▁Morning	-10
▁Navy	-10
▁brothers	-10
▁operate	-10
▁solar	-10
▁Mitchell	-10
▁throwing	-10
▁clock	-10
▁parliamentary	-10
▁matching	-10
▁Bruce	-10
▁sons	-10
▁pattern	-10
▁expansion	-10
▁complicated	-10
▁Food	-10
▁Joseph	-10
▁readers	-10
▁Stoke	-10
▁NASA	-10
▁metres	-10
▁maker	-10
▁Campbell	-10
▁shareholders	-10
▁iconic	-10
▁cabinet	-10
▁admit	-10
▁repeated	-10
▁predict	-10
▁contribution	-10
▁encouraging	-10
▁lifestyle	-10
▁museum	-10
side	-10
▁Muslims	-10
▁bin	-10
▁attending	-10
▁ranked	-10
pc	-10
▁drawing	-10
▁protected	-10
▁improvement	-10
▁Djokovic	-10
▁river	-10
▁locked	-10
▁Stuart	-10
▁Land	-10
▁devastating	-10
▁Journal	-10
▁Jane	-10
▁bail	-10
▁represented	-10
▁falls	-10
▁eighth	-10
▁Sometimes	-10
▁rural	-10
▁coal	-10
▁frequently	-10
▁au	-10
▁Forest	-10
▁mini	-10
▁Kane	-10
▁monthly	-10
▁constantly	-10
▁filmed	-10
▁mistakes	-10
▁250	-10
▁chat	-10
▁imposed	-10
▁deadline	-10
▁classes	-10
▁DNA	-10
▁1997	-10
▁membership	-10
▁Catholic	-10
▁chocolate	-10
▁constant	-10
▁indicated	-10
▁manufacturing	-10
▁probe	-10
▁Philadelphia	-10
▁goods	-10
▁survived	-10
▁athlete	-10
▁chase	-10
▁bowl	-10
▁franchise	-10
▁holidays	-10
▁bitter	-10
▁Bristol	-10
▁landing	-10
▁ensemble	-10
▁Price	-10
▁memories	-10
▁dropping	-10
▁supplies	-10
▁solutions	-10
▁carefully	-10
▁Downing	-10
▁beer	-10
▁se	-10
▁painful	-10
▁horror	-10
▁Met	-10
▁shout	-10
▁sole	-10
▁experiences	-10
▁error	-10
ger	-10
▁humans	-10
▁Nigeria	-10
▁posts	-10
ise	-10
▁deserve	-10
▁graduate	-10
well	-10
▁senator	-10
▁courts	-10
▁metal	-10
▁Guardiola	-10
▁resolution	-10
▁Hull	-10
▁parking	-10
▁knife	-10
▁Lib	-10
▁strict	-10
▁investments	-10
▁basketball	-10
▁producers	-10
▁command	-10
▁overwhelming	-10
▁necessarily	-10
▁settled	-10
▁Christopher	-10
▁Management	-10
▁Davies	-10
▁civilians	-10
▁secured	-10
▁runner	-10
▁5,000	-10
▁adopted	-10
▁Grant	-10
▁involvement	-10
▁useful	-10
▁Until	-10
▁sky	-10
▁Merkel	-10
▁funeral	-10
▁Updated	-10
▁incidents	-10
▁legacy	-10
▁appearing	-10
▁blog	-10
▁Nadal	-10
▁Bo	-10
▁cope	-10
▁describe	-10
▁upper	-10
▁intervention	-10
▁weapon	-10
ya	-10
▁Tokyo	-10
▁Crystal	-10
▁qualifying	-10
▁stages	-10
▁client	-10
▁chicken	-10
▁Left	-10
▁races	-10
▁Greg	-10
▁everywhere	-10
ba	-10
go	-10
▁intention	-10
▁ministry	-10
▁63	-10
▁communications	-10
▁extensive	-10
▁Without	-10
▁sur	-10
▁iron	-10
▁precise	-10
▁Photograph	-10
▁punch	-10
▁terrorists	-10
▁Colorado	-10
ful	-10
▁letting	-10
▁competing	-10
▁principal	-10
▁object	-10
▁Singapore	-10
▁investing	-10
▁cheaper	-10
▁picking	-10
▁arriving	-10
▁amounts	-10
▁Series	-10
▁representative	-10
▁diplomatic	-10
▁surprising	-10
▁exist	-10
▁Care	-10
▁dancing	-10
▁headquarters	-10
▁McIlroy	-10
▁abortion	-10
▁laugh	-10
▁feelings	-10
▁Vice	-10
▁dying	-10
▁Factor	-10
▁tone	-10
▁Did	-10
▁update	-10
▁talented	-10
▁ancient	-10
▁answers	-10
▁forms	-10
▁offices	-10
▁Aaron	-10
▁Soviet	-10
▁Roberts	-10
▁phase	-10
▁Atlanta	-10
▁successfully	-10
▁Robinson	-10
▁thus	-10
▁brands	-10
▁Cross	-10
▁Wembley	-10
▁collect	-10
▁practices	-10
▁scientific	-10
▁color	-10
lo	-10
▁Microsoft	-10
▁handling	-10
▁rating	-10
▁1998	-10
▁Web	-10
▁selected	-10
lew	-10
▁guns	-10
▁hanging	-10
▁lifted	-10
▁limits	-10
▁taught	-10
▁prominent	-10
▁killer	-10
▁exposure	-10
▁lock	-10
▁fault	-10
▁Fair	-10
▁bike	-10
▁category	-10
▁infected	-10
▁abandoned	-10
▁employed	-10
▁guidelines	-10
▁knocked	-10
▁fairly	-10
▁winger	-10
▁Sept	-10
▁bags	-10
▁waves	-10
▁participants	-10
▁triumph	-10
▁En	-10
▁grass	-10
▁enable	-10
▁Major	-10
▁shame	-10
▁Con	-10
▁locations	-10
▁Manhattan	-10
everal	-10
pped	-10
▁loving	-10
▁Munich	-10
▁pride	-10
ate	-10
▁Amy	-10
▁Eddie	-10
▁Garcia	-10
▁fighter	-10
▁literally	-10
▁Whether	-10
▁port	-10
▁bound	-10
▁unprecedented	-10
▁Gareth	-10
▁Edward	-10
ised	-10
▁smoking	-10
▁Saint	-10
▁awareness	-10
▁column	-10
▁intend	-10
▁assessment	-10
▁holes	-10
▁reasonable	-10
▁covering	-10
▁Conservatives	-10
▁theme	-10
▁suspects	-10
▁Roman	-10
▁emails	-10
what	-10
▁walls	-10
▁steel	-10
▁Hughes	-10
io	-10
▁demanded	-10
▁strategic	-10
▁pensions	-10
▁proof	-10
▁celebration	-10
▁hell	-10
▁Ashley	-10
▁somehow	-10
▁comparison	-10
▁consistent	-10
.1	-10
▁signal	-10
▁Miliband	-10
▁Ho	-10
▁Ray	-10
▁mountain	-10
▁units	-10
▁locks	-10
▁Later	-10
▁Pennsylvania	-10
▁headlines	-10
▁trigger	-10
▁rough	-10
▁Administration	-10
▁specifically	-10
▁plain	-10
▁defended	-10
▁attractive	-10
▁Brooklyn	-10
▁MORE	-10
▁Sportsmail	-10
▁71	-10
▁momentum	-10
▁trail	-10
▁contained	-10
▁hopefully	-10
▁Independent	-10
▁blocked	-10
▁GMT	-10
▁Kyle	-10
me	-10
ably	-10
▁seized	-10
▁hidden	-10
▁breach	-10
za	-10
▁undergo	-10
▁deem	-10
▁materials	-10
▁Perth	-10
▁Lu	-10
▁wheel	-10
▁Rubio	-10
▁Arena	-10
▁resident	-10
▁afterwards	-10
▁comeback	-10
▁tradition	-10
▁register	-10
▁lifetime	-10
▁conviction	-10
▁farmers	-10
▁Executive	-10
▁recommended	-10
▁relatives	-10
▁800	-10
▁cancelled	-10
▁cited	-10
▁photographs	-10
▁cleared	-10
▁nose	-10
▁substantial	-10
▁telephone	-10
▁hosted	-10
▁applications	-10
▁wages	-10
▁Dallas	-10
mer	-10
▁rounds	-10
ning	-10
▁disorder	-10
▁promotion	-10
▁Mercedes	-10
▁engage	-10
▁collected	-10
▁personally	-10
▁Ma	-10
▁Theatre	-10
▁m	-10
▁perspective	-10
▁Conference	-10
▁contribute	-10
▁select	-10
▁pursue	-10
▁nominee	-10
▁salt	-10
▁Warner	-10
▁Mars	-10
▁breaks	-10
▁soldier	-10
▁occasions	-10
▁chaos	-10
▁anybody	-10
▁baseball	-10
▁collective	-10
▁Carter	-10
▁alert	-10
▁posting	-10
▁settle	-10
house	-10
▁600	-10
▁61	-10
▁Space	-10
▁Hart	-10
▁grateful	-10
▁hall	-10
▁permission	-10
▁Brighton	-10
▁labor	-10
▁Toronto	-10
▁theatre	-10
▁Islam	-10
▁citing	-10
▁tip	-10
▁coaching	-10
▁Canberra	-10
▁celebrities	-10
▁Masters	-10
▁bonds	-10
▁motion	-10
▁promising	-10
▁exhibition	-10
pe	-10
line	-10
▁Clark	-10
▁Harvey	-10
▁worn	-10
▁assist	-10
▁colleague	-10
▁Collins	-10
▁ballot	-10
▁medicine	-10
▁ratings	-10
▁racism	-10
▁Kent	-10
▁Detroit	-10
▁asylum	-10
▁interviews	-10
don	-10
▁relative	-10
▁Down	-10
▁speaks	-10
▁height	-10
▁sufficient	-10
▁initiative	-10
▁representatives	-10
▁pages	-10
▁strip	-10
▁Cleveland	-10
▁highlighted	-10
▁introduce	-10
▁Kingdom	-10
▁retailers	-10
▁rapidly	-10
▁activist	-10
▁encounter	-10
▁Network	-10
▁hired	-10
▁tips	-10
▁map	-10
▁Margaret	-10
▁recording	-10
▁Come	-10
▁hip	-10
▁Virgin	-10
▁Film	-10
▁hang	-10
ah	-10
▁expense	-10
▁helicopter	-10
▁approached	-10
▁mad	-10
▁Keith	-10
▁therapy	-10
▁finger	-10
▁entitled	-10
▁relevant	-10
▁Robin	-10
U	-10
▁See	-10
▁NEW	-10
▁auction	-10
▁fled	-10
bo	-10
▁regulation	-10
ability	-10
▁succeed	-10
▁concept	-10
▁Authority	-10
▁honor	-10
▁attempting	-10
▁Make	-10
mo	-10
▁wealthy	-10
▁foundation	-10
▁hide	-10
▁Cuba	-10
▁Rick	-10
▁branch	-10
▁function	-10
▁stream	-10
▁winds	-10
▁celebrating	-10
▁loves	-10
▁pocket	-10
▁defined	-10
▁NATO	-10
▁toll	-10
▁king	-10
▁recognition	-10
▁obtained	-10
▁pet	-10
up	-10
▁creation	-10
▁blind	-10
▁asset	-10
▁tensions	-10
▁Ne	-10
kin	-10
▁rushed	-10
▁mothers	-10
▁swing	-10
▁chef	-10
▁visits	-10
,8	-10
▁mess	-10
▁Off	-10
▁forever	-10
▁handful	-10
▁Mother	-10
▁degrees	-10
▁sheer	-10
▁Was	-10
per	-10
▁solo	-10
▁Hills	-10
▁factory	-10
▁facts	-10
▁earning	-10
▁approximately	-10
▁Development	-10
▁differences	-10
ville	-10
▁networks	-10
▁neighbour	-10
les	-10
▁lessons	-10
▁knock	-10
▁cruise	-10
▁nominated	-10
▁gathering	-10
▁autumn	-10
▁Have	-10
▁teeth	-10
▁unveiled	-10
▁producing	-10
▁forth	-10
▁ankle	-10
▁careful	-10
▁Gulf	-10
▁soul	-10
▁casual	-10
▁Age	-10
▁Hunt	-10
▁neighborhood	-10
▁impression	-10
▁tens	-10
▁commit	-10
▁tired	-10
▁context	-10
▁surveillance	-10
▁Read	-10
▁presidency	-10
▁employers	-10
▁rush	-10
▁taxpayers	-10
▁venture	-10
▁thick	-10
▁accusations	-10
▁exclusive	-10
▁meals	-10
▁Du	-10
▁Rome	-10
▁breath	-10
▁Blake	-10
▁shoulders	-10
▁birdie	-10
▁valuable	-10
▁76	-10
▁providers	-10
▁extension	-10
▁Celebrity	-10
▁appreciate	-10
▁addressed	-10
ists	-10
▁Oliver	-10
▁Kylie	-10
▁revenues	-10
▁Pope	-10
▁association	-10
▁pose	-10
▁labour	-10
▁74	-10
▁requirements	-10
▁tools	-10
▁Beckham	-10
▁Am	-10
▁prosecutor	-10
▁choices	-10
▁joked	-10
▁fierce	-10
▁stomach	-10
km	-10
▁achievement	-10
▁Minnesota	-10
▁detained	-10
▁organizations	-10
▁Dubai	-10
▁Dean	-10
ell	-10
▁50,000	-10
▁praise	-10
▁sustained	-10
▁explore	-10
▁di	-10
▁modest	-10
▁urban	-10
▁ensur	-10
▁communication	-10
ities	-10
▁slipped	-10
▁explosion	-10
▁wanting	-10
▁prisoners	-10
▁hotels	-10
▁2.5	-10
▁collapsed	-10
▁trainer	-10
▁burden	-10
▁Reserve	-10
▁sexually	-10
▁awful	-10
▁burning	-10
▁fate	-10
▁Bradley	-10
▁crashed	-10
▁bust	-10
▁gross	-10
▁Defence	-10
▁innocent	-10
▁20,000	-10
▁asks	-10
▁junior	-10
▁bold	-10
▁investigations	-10
▁pupils	-10
▁exceptional	-10
▁Science	-10
▁relaxed	-10
▁assume	-10
▁conspiracy	-10
▁margin	-10
▁ocean	-10
▁Part	-10
▁provider	-10
▁regions	-10
▁Sheffield	-10
▁Boy	-10
▁witnesses	-10
▁Nigel	-10
ng	-10
▁ridiculous	-10
▁Murphy	-10
▁Hampshire	-10
▁Special	-10
▁describes	-10
▁absolute	-10
▁fortune	-10
▁eager	-10
▁Bad	-10
▁1960	-10
▁WASHINGTON	-10
▁checks	-10
▁Tower	-10
▁households	-10
▁3,000	-10
▁weigh	-10
▁travelled	-10
▁nurse	-10
▁stroke	-10
ino	-10
▁revolution	-10
▁Water	-10
You	-10
▁sleeping	-10
▁listening	-10
▁firing	-10
▁ear	-10
▁verdict	-10
▁youngest	-10
▁statistics	-10
▁promoting	-10
▁couples	-10
▁premiere	-10
▁sudden	-10
▁physically	-10
▁Marine	-10
▁Camp	-10
▁respectively	-10
▁stressed	-10
▁Massachusetts	-10
▁Unfortunate	-10
▁conclusion	-10
sh	-10
▁web	-10
ccompanied	-10
▁crude	-10
▁yield	-10
▁landscape	-10
▁Aston	-10
▁inch	-10
▁Officials	-10
▁teen	-10
▁rocket	-10
▁trillion	-10
▁tool	-10
▁harassment	-10
▁crowds	-10
▁medals	-10
▁McDonald	-10
▁contributions	-10
▁Qaeda	-10
▁windows	-10
▁suspension	-10
▁Castro	-10
▁Angela	-10
▁eggs	-10
▁crossed	-10
▁GP	-10
▁weekly	-10
▁noise	-10
▁HIV	-10
▁bonus	-10
▁depth	-10
▁generous	-10
▁delivering	-10
▁resignation	-10
▁gear	-10
▁papers	-10
▁greet	-10
▁dates	-10
▁passionate	-10
▁Marc	-10
▁virtual	-10
▁Silva	-10
▁pretend	-10
▁feared	-10
▁cooking	-10
▁Abu	-10
▁bread	-10
▁Gen	-10
▁bizarre	-10
▁elements	-10
▁Pat	-10
▁forgotten	-10
▁medium	-10
▁cry	-10
▁Tesco	-10
▁electronic	-10
▁Jenner	-10
▁ultimate	-10
▁orange	-10
▁timing	-10
▁implement	-10
▁k	-10
▁unlike	-10
ney	-10
▁Watford	-10
▁Girl	-10
▁unions	-10
▁Should	-10
▁monitoring	-10
▁Inter	-10
▁1994	-10
▁scrutiny	-10
▁Derby	-10
▁Trafford	-10
▁Coalition	-10
▁anticipated	-10
▁forcing	-10
▁ranks	-10
▁bump	-10
▁cloud	-10
▁pays	-10
▁con	-10
▁slip	-10
▁journal	-10
▁Colin	-10
▁ethnic	-10
▁120	-10
▁rapper	-10
▁genetic	-10
▁cheese	-10
▁Airlines	-10
▁stance	-10
▁cents	-10
▁boom	-10
▁95	-10
▁sum	-10
▁bathroom	-10
▁scared	-10
ana	-10
▁spark	-10
▁Billy	-10
▁comprehensive	-10
▁euros	-10
▁elect	-10
▁inspiration	-10
▁bombing	-10
▁generate	-10
▁prosecution	-10
▁universities	-10
▁divided	-10
▁penalties	-10
▁Has	-10
▁supermarket	-10
▁survival	-10
▁warming	-10
▁ownership	-10
▁73	-10
ini	-11
▁Bond	-11
▁discovery	-11
▁Exchange	-11
▁Sturgeon	-11
▁triple	-11
▁naked	-11
▁viewed	-11
▁stability	-11
▁protecting	-11
▁shake	-11
▁Parker	-11
▁embrace	-11
▁Ron	-11
▁tragic	-11
▁Gaza	-11
▁plate	-11
▁prospects	-11
▁Clegg	-11
▁virtually	-11
▁1995	-11
▁Duncan	-11
▁trials	-11
▁Christie	-11
▁overcome	-11
▁grandmother	-11
▁77	-11
▁aims	-11
▁haul	-11
▁essentially	-11
▁Lawrence	-11
▁tall	-11
back	-11
▁resigned	-11
▁furious	-11
▁Nine	-11
▁popularity	-11
be	-11
▁Winter	-11
▁portfolio	-11
▁grant	-11
▁academic	-11
▁AFL	-11
▁principle	-11
▁mystery	-11
▁proven	-11
▁targeting	-11
▁duties	-11
▁Additional	-11
▁Head	-11
▁loud	-11
▁recognised	-11
▁tear	-11
▁Barclays	-11
▁constitutional	-11
▁Calif	-11
▁Luis	-11
▁captioned	-11
▁resolve	-11
▁reverse	-11
▁disabled	-11
▁Wars	-11
▁bat	-11
▁ignored	-11
▁establishment	-11
▁Vladimir	-11
▁polling	-11
▁highlight	-11
▁favor	-11
▁repeat	-11
▁Monaco	-11
▁Weinstein	-11
▁finances	-11
▁monitor	-11
▁arguing	-11
▁volunteers	-11
▁Blues	-11
▁Â	-11
▁qualify	-11
▁investigated	-11
▁rapid	-11
▁organised	-11
▁Farage	-11
▁footballer	-11
▁Ted	-11
▁wrapped	-11
ted	-11
▁Nor	-11
▁estimate	-11
▁Work	-11
▁conversations	-11
▁Sergio	-11
▁infections	-11
▁organisations	-11
ga	-11
▁inches	-11
9	-11
▁PA	-11
▁belt	-11
▁bosses	-11
▁spotlight	-11
▁Bale	-11
▁nationwide	-11
▁crown	-11
▁tracks	-11
▁invested	-11
▁Leader	-11
▁assess	-11
▁moderate	-11
▁masks	-11
▁chic	-11
▁requests	-11
▁punishment	-11
▁opens	-11
▁soil	-11
▁cake	-11
▁Rachel	-11
▁Wisconsin	-11
▁bone	-11
▁disappointment	-11
▁horses	-11
▁Conte	-11
▁inner	-11
▁rebel	-11
ee	-11
▁pm	-11
con	-11
▁Trade	-11
▁1996	-11
▁suspicion	-11
▁egg	-11
▁opener	-11
▁Championships	-11
▁Ukrainian	-11
▁1992	-11
▁politically	-11
▁vowed	-11
▁exact	-11
ck	-11
▁Holland	-11
▁eligible	-11
▁proceedings	-11
▁magic	-11
berg	-11
▁solve	-11
▁investor	-11
▁streak	-11
▁Katie	-11
▁stopping	-11
▁raid	-11
▁Ocean	-11
over	-11
▁Emily	-11
▁decrease	-11
▁waters	-11
▁licence	-11
▁procedure	-11
▁deposit	-11
ite	-11
▁campus	-11
▁waist	-11
▁Governor	-11
▁unfair	-11
▁bikini	-11
▁harsh	-11
▁Lane	-11
▁	-11
▁Country	-11
▁flood	-11
▁mis	-11
▁qualified	-11
ji	-11
▁Woman	-11
▁Had	-11
▁riding	-11
▁briefly	-11
mph	-11
▁ambitious	-11
▁glamorous	-11
▁frustration	-11
▁tweets	-11
▁remembered	-11
▁Victorian	-11
▁Klopp	-11
▁Reid	-11
▁	-11
▁damaging	-11
▁tourist	-11
▁auto	-11
▁advisers	-11
▁halt	-11
▁quarterback	-11
▁announc	-11
▁democratic	-11
,9	-11
▁Brady	-11
▁Corporation	-11
▁signature	-11
▁Thank	-11
▁makeup	-11
▁delays	-11
ex	-11
▁ads	-11
▁governing	-11
▁diabetes	-11
▁urging	-11
▁Spencer	-11
▁IS	-11
▁Del	-11
im	-11
▁Pakistani	-11
▁deployed	-11
▁trains	-11
▁sits	-11
▁Burnley	-11
▁lesson	-11
▁sacked	-11
▁nowhere	-11
▁hire	-11
▁discrimination	-11
▁trips	-11
▁Never	-11
▁Bolton	-11
va	-11
▁warnings	-11
▁doping	-11
▁sheet	-11
▁buried	-11
▁photograph	-11
▁volume	-11
▁experiment	-11
▁offences	-11
▁swept	-11
▁circle	-11
▁Barry	-11
▁pollution	-11
▁Edwards	-11
all	-11
▁distribution	-11
▁Helen	-11
▁grade	-11
▁controls	-11
sen	-11
▁bronze	-11
▁unexpected	-11
▁thousand	-11
▁Standard	-11
▁GDP	-11
▁Civil	-11
▁civilian	-11
▁Researchers	-11
▁skirt	-11
▁frustrated	-11
▁slight	-11
▁occur	-11
▁maintained	-11
▁minds	-11
▁commander	-11
▁engineer	-11
▁notorious	-11
▁sand	-11
ik	-11
▁rises	-11
▁grave	-11
▁Nelson	-11
10	-11
▁Ashes	-11
▁balls	-11
▁basically	-11
▁worrying	-11
▁Te	-11
▁wood	-11
▁Sophie	-11
que	-11
▁copy	-11
▁deserves	-11
▁procedures	-11
▁rolling	-11
▁panic	-11
▁ninth	-11
▁Chairman	-11
▁intent	-11
▁entrance	-11
▁rolled	-11
▁button	-11
▁efficient	-11
▁detention	-11
▁Current	-11
▁painting	-11
▁shelter	-11
▁Potter	-11
▁risen	-11
▁★	-11
▁rumours	-11
▁engineering	-11
▁professionals	-11
▁religion	-11
▁Europa	-11
▁suggestion	-11
▁Easter	-11
▁writers	-11
▁connect	-11
▁Su	-11
▁paint	-11
▁challenged	-11
▁tourism	-11
▁cook	-11
▁storage	-11
▁Much	-11
▁ignore	-11
▁lending	-11
▁booked	-11
ize	-11
▁Indonesia	-11
▁Officer	-11
▁acted	-11
▁photographer	-11
▁premium	-11
▁screening	-11
▁Anti	-11
▁trousers	-11
▁searching	-11
▁Bella	-11
▁indication	-11
▁Bournemouth	-11
▁obtain	-11
▁Brom	-11
▁Ebola	-11
▁billions	-11
▁flowers	-11
▁tee	-11
▁consumption	-11
▁sentiment	-11
▁affordable	-11
▁Atletico	-11
▁electoral	-11
▁resistance	-11
▁congressional	-11
▁borrowing	-11
▁drunk	-11
▁beloved	-11
▁Va	-11
▁denies	-11
▁Kris	-11
▁pointing	-11
▁fastest	-11
▁apology	-11
▁beneath	-11
▁troubled	-11
▁academy	-11
▁testimony	-11
▁showcase	-11
▁element	-11
▁Secret	-11
▁tactics	-11
▁Sure	-11
▁endless	-11
▁checked	-11
▁hopeful	-11
▁spectacular	-11
▁catching	-11
ai	-11
▁tape	-11
▁TM	-11
▁interviewed	-11
▁Alabama	-11
▁Ward	-11
▁Ann	-11
▁homeless	-11
▁exports	-11
▁repair	-11
▁reluctant	-11
ig	-11
▁Ball	-11
▁Control	-11
▁rear	-11
▁regardless	-11
▁participate	-11
▁Les	-11
▁sing	-11
▁Boeing	-11
▁trapped	-11
po	-11
▁naturally	-11
▁fed	-11
▁78	-11
▁Juventus	-11
▁Commissioner	-11
ki	-11
▁Call	-11
▁excitement	-11
▁Things	-11
▁Juan	-11
▁oldest	-11
▁reception	-11
▁describ	-11
▁tale	-11
▁billionaire	-11
▁accurate	-11
▁generations	-11
▁battery	-11
▁sessions	-11
▁Marco	-11
▁crying	-11
ci	-11
▁muscle	-11
▁Douglas	-11
ez	-11
▁highlights	-11
▁recommend	-11
▁Oklahoma	-11
▁mirror	-11
▁borders	-11
▁Fisher	-11
▁explanation	-11
▁marijuana	-11
▁covers	-11
▁restore	-11
▁destination	-11
▁dreams	-11
▁rid	-11
▁Dancing	-11
coming	-11
▁hunt	-11
ny	-11
▁Lauren	-11
▁dining	-11
▁glad	-11
▁disappeared	-11
▁scenario	-11
off	-11
▁crossing	-11
▁stupid	-11
▁stylish	-11
▁Sad	-11
▁campaigns	-11
▁gather	-11
▁Cole	-11
▁Cristiano	-11
▁directors	-11
▁burst	-11
▁satellite	-11
▁strengthen	-11
▁teenagers	-11
▁longest	-11
▁Yemen	-11
▁defeated	-11
▁Pen	-11
▁sisters	-11
▁viral	-11
▁Jesus	-11
▁makers	-11
▁arts	-11
▁Being	-11
▁medication	-11
▁regret	-11
▁hosting	-11
▁urgent	-11
we	-11
▁Speaker	-11
▁friendship	-11
▁regulators	-11
▁drone	-11
▁Nothing	-11
▁mining	-11
▁84	-11
▁associate	-11
▁Kansas	-11
▁visible	-11
▁criticized	-11
▁economist	-11
▁Rory	-11
▁Vietnam	-11
▁Authorities	-11
▁dubb	-11
▁promoted	-11
▁est	-11
▁enemy	-11
▁coup	-11
▁Kerry	-11
▁transform	-11
▁Unlike	-11
▁DC	-11
▁serves	-11
▁weird	-11
▁Isa	-11
▁Ukip	-11
▁spots	-11
Neill	-11
▁judgment	-11
▁accommodation	-11
▁taxi	-11
▁Oregon	-11
op	-11
▁quarters	-11
▁Reporter	-11
▁touched	-11
▁impose	-11
lan	-11
▁dealt	-11
▁proportion	-11
▁Ku	-11
▁headline	-11
▁attached	-11
▁Maryland	-11
mar	-11
▁Thatcher	-11
▁belong	-11
▁offence	-11
ff	-11
▁Swedish	-11
▁Bolt	-11
▁IT	-11
▁supporter	-11
▁preferred	-11
▁Fashion	-11
▁consistently	-11
▁Suarez	-11
▁79	-11
▁birds	-11
▁82	-11
▁Turner	-11
▁Play	-11
▁refer	-11
▁script	-11
▁ski	-11
▁1.2	-11
▁neighbours	-11
▁Baker	-11
▁shy	-11
▁RT	-11
▁Near	-11
▁Xi	-11
▁smooth	-11
▁apps	-11
▁airlines	-11
▁refugee	-11
▁deserved	-11
▁method	-11
▁Everything	-11
▁courage	-11
▁g	-11
▁arguments	-11
▁Andre	-11
▁Nicola	-11
▁fitting	-11
▁cooperation	-11
▁putt	-11
▁primari	-11
There	-11
▁expression	-11
▁studied	-11
▁generated	-11
▁Garden	-11
▁closest	-11
▁Slam	-11
▁Senior	-11
▁leaked	-11
▁Emirates	-11
▁carries	-11
▁Anyone	-11
▁nights	-11
▁seed	-11
▁Czech	-11
▁foul	-11
▁Information	-11
▁determination	-11
▁Adams	-11
▁clever	-11
▁Lo	-11
▁Latin	-11
▁consultant	-11
▁Australians	-11
▁laughing	-11
▁escaped	-11
▁Hodgson	-11
▁sustainable	-11
▁Columbia	-11
▁outlook	-11
▁equality	-11
▁survivors	-11
▁edition	-11
▁murdered	-11
▁difficulties	-11
▁Affairs	-11
▁shaped	-11
.2	-11
▁immune	-11
▁Chi	-11
▁versus	-11
▁99	-11
▁cycling	-11
▁Islamist	-11
▁steady	-11
▁Tiger	-11
▁dramatically	-11
If	-11
▁strain	-11
▁Carlos	-11
▁ages	-11
▁diversity	-11
▁Caribbean	-11
▁Netanyahu	-11
▁Ko	-11
▁treating	-11
▁evil	-11
▁addiction	-11
▁Arthur	-11
▁Deputy	-11
▁industries	-11
ti	-11
▁slammed	-11
head	-11
▁Belgian	-11
▁Looking	-11
▁Ban	-11
▁shoppers	-11
▁glimpse	-11
▁Stanley	-11
▁sized	-11
▁Hunter	-11
▁Jerusalem	-11
▁taxpayer	-11
▁raw	-11
▁Bernie	-11
▁excess	-11
▁grip	-11
▁motor	-11
▁Sri	-11
▁reward	-11
▁humanitarian	-11
▁compound	-11
▁deeper	-11
▁centres	-11
▁towns	-11
▁counsel	-11
▁dish	-11
▁Child	-11
isation	-11
▁boxes	-11
▁memorial	-11
ron	-11
ES	-11
▁Mohammed	-11
▁default	-11
▁petition	-11
ker	-11
▁Could	-11
▁Too	-11
▁struggles	-11
▁tune	-11
▁Delhi	-11
▁Source	-11
wa	-11
▁Ke	-11
▁convention	-11
▁anymore	-11
▁watchdog	-11
ach	-11
▁menu	-11
▁lined	-11
▁item	-11
▁warn	-11
▁subsequent	-11
▁witnessed	-11
▁fishing	-11
▁guaranteed	-11
▁walks	-11
▁devastated	-11
▁optimistic	-11
▁pursuit	-11
ement	-11
▁smell	-11
▁Netherlands	-11
▁blocks	-11
▁Online	-11
▁chart	-11
▁twin	-11
▁Dortmund	-11
▁Neymar	-11
▁Leave	-11
▁Castle	-11
▁machines	-11
▁conceded	-11
▁READ	-11
▁frequent	-11
▁Does	-11
ising	-11
▁authors	-11
▁posing	-11
▁Eve	-11
▁il	-11
▁loyal	-11
▁Review	-11
ani	-11
ze	-11
▁uniform	-11
▁barrel	-11
▁twins	-11
ita	-11
▁withdraw	-11
ns	-11
▁charging	-11
▁veterans	-11
▁dialogue	-11
▁acquired	-11
▁teach	-11
▁streaming	-11
▁Essex	-11
▁Economic	-11
▁recommendations	-11
▁Technology	-11
▁Staff	-11
▁Total	-11
▁Harrison	-11
▁relegation	-11
▁kiss	-11
▁stepping	-11
▁Pa	-11
▁Community	-11
▁battling	-11
▁consent	-11
▁Girls	-11
▁outrage	-11
▁Rodgers	-11
ily	-11
▁Chile	-11
▁arrangements	-11
▁soccer	-11
▁pledg	-11
▁displayed	-11
▁doubled	-11
▁preparation	-11
▁plea	-11
▁Se	-11
▁chronic	-11
out	-11
▁peaceful	-11
▁concrete	-11
▁donations	-11
▁progressive	-11
▁ranging	-11
▁safely	-11
▁Carl	-11
▁robust	-11
▁Bloomberg	-11
▁explosive	-11
▁Playing	-11
▁output	-11
▁200,000	-11
▁toxic	-11
▁Avenue	-11
▁operator	-11
▁broadcaster	-11
▁inevitable	-11
▁mansion	-11
▁discount	-11
▁methods	-11
▁bang	-11
▁expanded	-11
▁launching	-11
5,000	-11
▁retailer	-11
▁Ni	-11
▁globe	-11
▁inform	-11
▁Qatar	-11
▁Would	-11
▁lenders	-11
▁citizen	-11
▁refusing	-11
▁Strictly	-11
▁Susan	-11
▁Please	-11
▁oppose	-11
▁considerable	-11
▁emerge	-11
▁earthquake	-11
▁Capitol	-11
▁Egyptian	-11
▁planes	-11
▁mutual	-11
▁tier	-11
▁reject	-11
▁condemned	-11
▁businessman	-11
▁reviews	-11
▁comedian	-11
▁Johnny	-11
▁refuse	-11
▁introduction	-11
▁observed	-11
▁triggered	-11
▁2021	-11
They	-11
▁abused	-11
▁sexy	-11
▁Nazi	-11
▁outdoor	-11
▁Lincoln	-11
▁ne	-11
▁h	-11
▁pas	-11
▁trio	-11
▁lap	-11
▁Nathan	-11
▁economies	-11
▁mainstream	-11
▁Summer	-11
▁Illinois	-11
▁bird	-11
▁Cohen	-11
▁PC	-11
▁lip	-11
▁withdrawal	-11
▁rated	-11
▁Cancer	-11
▁successor	-11
ber	-11
▁crop	-11
▁pure	-11
▁None	-11
▁Thailand	-11
▁relie	-11
▁substitute	-11
▁Lopez	-11
▁Floyd	-11
▁technique	-11
▁uncomfortable	-11
▁Light	-11
▁fields	-11
▁Dem	-11
▁requested	-11
▁YORK	-11
▁Obviously	-11
▁fires	-11
▁Friends	-11
▁brunette	-11
▁Gove	-11
▁Mount	-11
▁warns	-11
hi	-11
▁excuse	-11
▁bow	-11
▁Aberdeen	-11
▁Way	-11
▁calendar	-11
▁assists	-11
▁bunch	-11
▁legitimate	-11
▁Book	-11
▁Ka	-11
▁Division	-11
▁hiding	-11
▁treatments	-11
▁Sterling	-11
▁Swift	-11
▁finale	-11
▁neighbor	-11
▁peer	-11
▁Stars	-11
▁protein	-11
▁rental	-11
▁interior	-11
▁Bureau	-11
▁Pre	-11
▁desk	-11
▁import	-11
▁bottles	-11
▁ranking	-11
▁accord	-11
▁Utah	-11
▁30,000	-11
▁negotiate	-11
▁flooding	-11
▁Reading	-11
more	-11
▁alliance	-11
▁grabb	-11
▁cancel	-11
▁cyber	-11
▁Bailey	-11
▁confront	-11
▁mandate	-11
▁pen	-11
han	-11
pping	-11
▁Macron	-11
▁Jake	-11
▁respected	-11
▁skill	-11
▁existence	-11
▁Manager	-11
▁embarrassing	-11
▁CIA	-11
▁fence	-11
▁Phillips	-11
▁confessed	-11
▁Help	-11
▁Fulham	-11
▁reminder	-11
▁click	-11
▁intellectual	-11
▁Hope	-11
▁ally	-11
▁Shane	-11
▁deciding	-11
▁desert	-11
ru	-11
▁Almost	-11
▁compromise	-11
▁convert	-11
▁purchased	-11
▁wise	-11
tic	-11
▁Norway	-11
▁employer	-11
▁Claire	-11
▁influential	-11
▁Na	-11
▁Rodriguez	-11
▁butter	-11
▁grab	-11
▁Pentagon	-11
▁Stock	-11
▁schemes	-11
ou	-11
▁Mueller	-11
▁climb	-11
▁cocaine	-11
▁installed	-11
▁unacceptable	-11
▁Dame	-11
▁residential	-11
▁technologies	-11
mm	-11
zi	-11
▁waited	-11
▁retire	-11
▁sa	-11
▁dementia	-11
▁painted	-11
▁adopt	-11
▁filing	-11
▁700	-11
nt	-11
ac	-11
▁Around	-11
▁assured	-11
▁Mad	-11
▁diseases	-11
▁Austin	-11
▁Report	-11
▁urge	-11
▁Hi	-11
▁Samuel	-11
▁emotions	-11
▁choosing	-11
▁500,000	-11
▁visual	-11
▁ships	-11
▁Bull	-11
▁websites	-11
▁Whatever	-11
▁Finally	-11
▁aftermath	-11
▁1993	-11
▁substance	-11
▁Kenya	-11
▁inappropriate	-11
water	-11
▁Sony	-11
▁Nobody	-11
▁83	-11
▁craft	-11
▁1.3	-11
▁pants	-11
▁questioning	-11
▁expanding	-11
▁tension	-11
▁Shanghai	-11
▁Moon	-11
▁Dublin	-11
▁Gray	-11
▁owns	-11
▁volunteer	-11
▁ambulance	-11
▁Wigan	-11
▁symbol	-11
ow	-11
▁Sa	-11
▁destruction	-11
▁beef	-11
▁heritage	-11
▁diagnosis	-11
▁attendance	-11
pa	-11
▁soap	-11
▁Place	-11
▁celebrations	-11
▁flash	-11
▁musician	-11
▁jokes	-11
▁smiling	-11
▁smartphone	-11
▁heavyweight	-11
▁pan	-11
▁periods	-11
bi	-11
▁cable	-11
▁integrity	-11
mann	-11
▁longtime	-11
▁pleasure	-11
▁ingredients	-11
▁Norwich	-11
▁frozen	-11
▁Morris	-11
▁pile	-11
ster	-11
▁artificial	-11
▁Formula	-11
▁Low	-11
▁quietly	-11
▁Venezuela	-11
▁subsequently	-11
▁	-11
▁81	-11
▁remov	-11
▁Lionel	-11
▁trailer	-11
▁toilet	-11
▁worries	-11
▁consideration	-11
▁Mick	-11
▁speaker	-11
dy	-11
long	-11
▁Pop	-11
▁Through	-11
▁voices	-11
▁Death	-11
▁Captain	-11
▁Austria	-11
▁dust	-11
▁GB	-11
▁isolated	-11
▁recognize	-11
▁nurses	-11
▁tremendous	-11
▁Malaysia	-11
▁arrives	-11
▁everyday	-11
▁eurozone	-11
▁boot	-11
▁missiles	-11
ization	-11
▁minded	-11
▁intimate	-11
▁scientist	-11
▁carrier	-11
▁automatically	-11
▁Baby	-11
▁Orlando	-11
▁aspects	-11
▁portion	-11
▁NRL	-11
▁Again	-11
▁Amanda	-11
▁Line	-11
▁Kentucky	-11
▁suits	-11
▁marry	-11
▁discipline	-11
ev	-11
▁Albert	-11
▁resume	-11
▁foods	-11
▁Prix	-11
▁Jong	-11
▁Fans	-11
Q	-11
▁universal	-11
tz	-11
▁insider	-11
▁criminals	-11
izing	-11
▁stamp	-11
▁charities	-11
▁youngsters	-11
▁Grace	-11
▁nerve	-11
▁alarm	-11
▁sharply	-11
▁Travel	-11
▁innovation	-11
▁kicking	-11
▁openly	-11
▁86	-11
▁Owen	-11
▁motivated	-11
▁gig	-11
▁Marie	-11
▁emphasis	-11
▁Gar	-11
▁breathing	-11
▁accusing	-11
▁collaboration	-11
▁Spieth	-11
▁McGregor	-11
▁Express	-11
▁spare	-11
▁raises	-11
▁Marcus	-11
▁1950	-11
ho	-11
▁selfie	-11
▁ambition	-11
chi	-11
▁confused	-11
▁phrase	-11
▁correspondent	-11
▁embark	-11
▁Cal	-11
▁Lyon	-11
▁Organization	-11
▁removal	-11
▁Mitt	-11
▁Nevada	-11
▁acquisition	-11
▁profound	-11
But	-11
▁Dow	-11
▁Fury	-11
▁spreading	-11
▁paired	-11
▁contemporary	-11
▁advocate	-11
▁exception	-11
▁premier	-11
▁Alexis	-11
▁hearts	-11
▁Guy	-11
▁purchases	-11
▁Turnbull	-11
▁Hungary	-11
▁enhance	-11
This	-11
ella	-11
▁midnight	-11
▁roots	-11
▁transferred	-11
▁Ahmed	-11
▁Il	-11
▁Heart	-11
▁psychological	-11
▁Serena	-11
▁hint	-11
▁cruel	-11
▁embassy	-11
he	-11
▁silent	-11
▁Tennessee	-11
▁Hamas	-11
▁Orange	-11
▁Hurricane	-11
▁answered	-11
▁Pan	-11
▁voter	-11
▁remark	-11
▁chip	-11
▁elegant	-11
▁Mason	-11
ong	-11
▁objects	-11
▁definition	-11
▁Chase	-11
▁hung	-11
▁Tommy	-11
▁Iceland	-11
▁hunting	-11
▁DJ	-11
▁backlash	-11
▁Net	-11
▁Voice	-11
▁Hudson	-11
▁spirits	-11
▁spy	-11
▁clinic	-11
▁Assembly	-11
▁pump	-11
▁forecasts	-11
▁indicate	-11
▁Palestinians	-11
▁samples	-11
▁aide	-11
▁reserve	-11
▁Made	-11
and	-11
▁Indiana	-11
▁orbit	-11
▁narrative	-11
▁qu	-11
▁fixture	-11
▁caps	-11
▁Sudan	-11
▁Recent	-11
▁austerity	-11
▁shower	-11
▁Ltd	-11
▁Bennett	-11
jo	-11
▁depends	-11
▁diverse	-11
▁briefing	-11
▁liquid	-11
▁residence	-11
▁rescued	-11
▁dated	-11
▁Carrie	-11
▁HSBC	-11
▁closure	-11
▁suspicious	-11
▁Bel	-11
▁studying	-11
▁Policy	-11
▁undermine	-11
▁manufacturers	-11
▁Goldman	-11
▁tap	-11
▁pal	-11
▁Kenny	-11
▁Happy	-11
▁convince	-11
▁computers	-11
▁institution	-11
▁depict	-11
▁Mario	-11
▁snapped	-11
▁88	-11
▁deliberately	-11
▁Giants	-11
▁Broadway	-11
▁runway	-11
▁commented	-11
▁caution	-11
▁bacteria	-11
▁episodes	-11
▁superstar	-11
▁III	-11
▁Yesterday	-11
▁dominant	-11
▁vocal	-11
▁Lords	-11
▁tougher	-11
▁Samsung	-11
▁shed	-11
▁Silver	-11
▁wishes	-11
▁Par	-11
▁x	-11
▁aspect	-11
▁examine	-11
▁Tehran	-11
▁drag	-11
▁Broad	-11
▁Field	-11
▁icon	-11
port	-11
▁platforms	-11
▁del	-11
▁militant	-11
▁guards	-11
▁differently	-11
▁Cheryl	-11
▁Point	-11
▁spray	-11
▁superb	-11
▁parade	-11
▁mild	-11
▁Baltimore	-11
▁confusion	-11
▁sophisticated	-11
▁overhaul	-11
▁consist	-11
▁bloody	-11
▁Powell	-11
▁Ar	-11
▁trauma	-11
▁Darren	-11
▁Ivanka	-11
▁forest	-11
▁Pep	-11
▁Late	-11
har	-11
▁segment	-11
ese	-11
▁Holmes	-11
▁invasion	-11
▁é	-11
▁awkward	-11
▁FC	-11
cha	-11
▁recalls	-11
▁operated	-11
▁Julia	-11
▁Freedom	-11
▁kit	-11
▁giants	-11
▁broker	-11
▁stops	-11
▁accuse	-11
▁whils	-11
▁glory	-11
▁Plus	-11
▁tunnel	-11
▁takeover	-11
▁situations	-11
▁notion	-11
ette	-11
▁History	-11
▁Original	-11
▁bombs	-11
▁victories	-11
▁adapt	-11
▁horrible	-11
▁Scots	-11
▁petrol	-11
▁Finance	-11
▁Got	-11
▁protective	-11
▁arena	-11
▁navy	-11
▁bath	-11
▁Lucas	-11
▁shouting	-11
▁gate	-11
▁Story	-11
▁Father	-11
▁acceptable	-11
▁camps	-11
▁Final	-11
▁rage	-11
▁newspapers	-11
▁shall	-11
▁crackdown	-11
▁87	-11
▁cannabis	-11
▁chancellor	-11
▁examination	-11
▁nightmare	-11
▁habit	-11
▁Small	-11
▁enhanc	-11
▁Phoenix	-11
▁sensible	-11
▁Storm	-11
▁evident	-11
▁interim	-11
▁PGA	-11
▁channels	-11
▁SOURCE	-11
▁operators	-11
▁tag	-11
▁helpful	-11
▁Sheriff	-11
▁bare	-11
▁Fla	-11
▁Protection	-11
▁submitted	-11
▁renewed	-11
▁Spring	-11
ence	-11
▁Britons	-11
▁vacation	-11
▁1989	-11
▁Cuban	-11
▁trends	-11
ut	-11
▁horrific	-11
▁complain	-11
▁prompting	-11
ran	-11
▁Ferrari	-11
▁Medicine	-11
▁circuit	-11
▁stint	-11
▁Oil	-11
▁commissioner	-11
▁resign	-11
▁downtown	-11
▁occasionally	-11
▁admitt	-11
▁Ruth	-11
▁breakdown	-11
▁relat	-11
▁fined	-11
▁stimulus	-11
▁brush	-11
▁detect	-11
▁pipeline	-11
▁relation	-11
▁researcher	-11
▁intensity	-11
▁Fred	-11
▁teens	-11
▁distancing	-11
▁screaming	-11
▁gifts	-11
▁clashes	-11
▁breakthrough	-11
▁Holly	-11
▁Transport	-11
▁blend	-11
che	-11
▁avoided	-11
▁negotiating	-11
▁Benjamin	-11
▁hardest	-11
▁hedge	-11
▁fiction	-11
▁130	-11
▁vegetables	-11
▁89	-11
▁Dad	-11
em	-11
▁peers	-11
▁legally	-11
▁nasty	-11
▁Henderson	-11
▁Lucy	-11
ett	-11
▁Lukaku	-11
▁dragg	-11
▁shirts	-11
▁dirty	-11
▁Scientists	-11
▁fantasy	-11
▁Wolves	-11
▁reply	-11
▁Inside	-11
▁dies	-11
▁1991	-11
ang	-11
▁Dead	-11
▁stabbed	-11
▁pending	-11
▁approve	-11
▁gonna	-11
▁Heathrow	-11
▁Within	-11
▁bullying	-11
▁fingers	-11
▁Station	-11
▁Jews	-11
▁favourites	-11
▁lean	-11
▁Fi	-11
▁colours	-11
▁fights	-11
▁Har	-11
▁misconduct	-11
▁sunglasses	-11
▁achievements	-11
▁audiences	-11
▁header	-11
▁traded	-11
▁disastrous	-11
▁poses	-11
▁suppliers	-11
▁conventional	-11
▁Tesla	-11
▁epic	-11
▁sweeping	-11
▁Twenty	-11
▁Securities	-11
▁Jerry	-11
▁reads	-11
▁manifesto	-11
▁condemn	-11
▁Blackburn	-11
▁Si	-11
▁anonymity	-11
▁realize	-11
▁Writing	-11
▁continent	-11
▁Guard	-11
▁inspire	-11
▁competitors	-11
▁ripped	-11
▁BT	-11
▁converted	-11
▁Col	-11
▁Action	-11
▁neutral	-11
ano	-11
▁Alaska	-11
▁Taiwan	-11
▁leap	-11
▁Karl	-11
▁tower	-11
▁Pistorius	-11
▁Val	-11
▁mentally	-11
ap	-11
sky	-11
▁realistic	-11
▁automatic	-11
▁Harvard	-11
▁twist	-11
▁Lebanon	-11
▁Islands	-11
▁wildlife	-11
▁lips	-11
▁worthy	-11
vin	-11
▁demonstrat	-11
▁Metropolitan	-11
▁connections	-11
▁delegates	-11
▁improvements	-11
▁touching	-11
▁Caroline	-11
▁educated	-11
▁Karen	-11
▁provision	-11
▁Oval	-11
▁screens	-11
▁handled	-11
▁fascinating	-11
▁programmes	-11
▁fails	-11
▁meets	-11
▁burned	-11
▁cleaning	-11
▁ce	-11
mon	-11
▁stunned	-11
▁apologise	-11
▁altogether	-11
▁Tigers	-11
▁Safety	-11
▁Baghdad	-11
▁Herald	-11
▁Marshall	-11
▁Fast	-11
▁epidemic	-11
▁reliable	-11
▁wooden	-11
▁Neith	-11
▁fancy	-11
▁Bobby	-11
▁diesel	-11
▁Norman	-11
▁Denmark	-11
▁Denver	-11
▁Foster	-11
▁possess	-11
▁privately	-11
▁Federation	-11
▁innovative	-11
▁quarantine	-11
▁curb	-11
▁sensational	-11
▁Rod	-11
▁thrilled	-11
▁grandfather	-11
▁checking	-11
mi	-11
▁implications	-11
▁Julian	-11
▁lucrative	-11
▁blown	-11
▁steal	-11
fa	-11
▁precious	-11
▁jumping	-11
▁Key	-11
▁Orleans	-11
▁maintenance	-11
▁Plan	-11
▁tracking	-11
▁comic	-11
▁proceed	-11
▁Dominic	-11
▁Sussex	-11
▁Rather	-11
▁Metro	-11
▁acknowledge	-11
▁torture	-11
▁cinema	-11
▁sooner	-11
▁Kurdish	-11
▁Class	-11
▁nude	-11
▁Vincent	-11
▁beau	-11
▁lit	-11
▁bankruptcy	-11
▁Palmer	-11
▁blaze	-11
▁92	-11
▁climbed	-11
▁isolation	-11
if	-11
ship	-11
.3	-11
▁facial	-11
▁reserves	-11
▁persuade	-11
▁Intelligence	-11
▁Taking	-11
▁educational	-11
▁opinions	-11
▁Change	-11
▁lab	-11
▁sorts	-11
▁Pete	-11
▁appeals	-11
▁recovering	-11
ue	-11
▁workplace	-11
▁Buy	-11
ola	-11
▁Hawaii	-11
si	-11
▁Bishop	-11
▁radar	-11
▁festive	-11
▁root	-11
▁Jacob	-11
▁arrests	-11
She	-11
▁savers	-11
▁pressed	-11
▁Nottingham	-11
▁Christine	-11
▁4,000	-11
▁principles	-11
▁excessive	-11
▁separated	-11
▁WINNER	-11
▁combine	-11
▁Lakers	-11
▁Cox	-11
▁parks	-11
▁terminal	-11
▁campaigning	-11
ski	-11
▁portrait	-11
▁Experts	-11
▁Add	-11
▁wound	-11
▁developments	-11
▁diamond	-11
▁Anfield	-11
▁laughed	-11
▁array	-11
▁Dream	-11
▁migration	-11
▁movements	-11
▁revenge	-11
▁Hazard	-11
▁Warriors	-11
▁keeper	-11
▁AC	-11
▁sacrifice	-11
▁PSG	-11
▁bubble	-11
▁Stan	-11
▁Morrison	-11
▁queen	-11
▁Louise	-11
▁wondering	-11
▁Da	-11
▁centuries	-11
▁Larry	-11
▁nickname	-11
the	-11
lu	-11
▁critic	-11
▁unhappy	-11
▁gorgeous	-11
▁Brendan	-11
▁sample	-11
▁differ	-11
▁Entertainment	-11
▁Barbara	-11
▁burn	-11
▁measured	-11
▁furniture	-11
▁priced	-11
▁pin	-11
▁bounce	-11
▁export	-11
▁Eagles	-11
▁aides	-11
▁responding	-11
▁slim	-11
▁resist	-11
▁3.5	-11
▁secondary	-11
▁Glenn	-11
▁Medicare	-11
▁Harper	-11
beit	-11
▁Mal	-11
▁happily	-11
▁topic	-11
▁dividend	-11
▁meaningful	-11
▁inquest	-11
▁inter	-11
▁rhetoric	-11
▁intensive	-11
▁Fa	-11
▁touchdown	-11
▁Coleman	-11
▁Snow	-11
▁expertise	-11
▁6.5	-11
▁chamber	-11
▁economists	-11
▁enthusiasm	-11
▁Prize	-11
▁fleet	-11
▁unnecessary	-11
▁Farm	-11
▁Nation	-11
▁dig	-11
iness	-11
▁legendary	-11
▁Lloyd	-11
▁prevented	-11
▁stark	-11
▁Fort	-11
▁Reed	-11
tin	-11
▁sauce	-11
▁spaces	-11
▁emotion	-11
▁compare	-11
▁Malcolm	-11
▁bulk	-11
▁temporarily	-11
▁Zika	-11
▁celebrates	-11
▁defenders	-11
▁dynamic	-11
▁acid	-11
▁glasses	-11
▁Blackman	-11
▁islands	-11
▁affects	-11
▁weakness	-11
▁Croatia	-11
▁Season	-11
▁instant	-11
▁Thousands	-11
▁Pogba	-11
▁Walsh	-11
▁nonsense	-11
▁Joel	-11
▁mode	-11
▁reviewed	-11
▁supportive	-11
▁accepting	-11
▁chasing	-11
▁constitution	-11
▁Hugh	-11
▁astonishing	-11
▁justify	-11
▁Think	-11
▁GM	-11
▁Early	-11
▁micro	-11
▁pressing	-11
▁Colombia	-11
▁Toyota	-11
▁consensus	-11
▁Arsene	-11
▁statue	-11
▁warrant	-11
▁raped	-11
▁trainers	-11
▁donors	-11
▁Golf	-11
▁presents	-11
▁trademark	-11
▁da	-11
gan	-11
▁inning	-11
▁Hot	-11
▁perceived	-11
▁Insurance	-11
▁Bear	-11
▁argues	-11
▁formation	-11
▁filling	-11
▁Julie	-11
▁Kremlin	-11
ée	-11
▁lung	-11
▁notably	-11
▁Robbie	-11
vo	-11
▁external	-11
▁undoubted	-11
du	-11
▁understands	-11
▁financing	-11
▁Markle	-11
▁01	-11
▁Crime	-11
▁Sally	-11
▁steep	-11
▁underway	-11
▁Mohamed	-11
▁unbeaten	-11
▁transformation	-11
ok	-11
▁Middleton	-11
▁organic	-11
▁Cold	-11
▁lavish	-11
▁underneath	-11
▁stole	-11
▁spill	-11
▁examined	-11
▁legislative	-11
▁Kanye	-11
▁throat	-11
▁Arts	-11
▁Penn	-11
▁transformed	-11
▁switched	-11
▁Mass	-11
▁privilege	-11
▁agreements	-11
▁opera	-11
▁preserve	-11
▁na	-11
▁Middlesbrough	-11
▁aired	-11
▁stem	-11
▁obesity	-11
▁AM	-11
▁trans	-11
▁Thanks	-11
▁adjust	-11
▁fever	-11
▁reopen	-11
une	-11
▁tariffs	-11
▁runners	-11
ria	-11
▁intelligent	-11
her	-11
▁define	-11
▁ears	-11
▁bloc	-11
▁humanity	-11
▁bother	-11
▁calories	-11
▁participation	-11
▁rebounds	-11
▁motivation	-11
▁viewing	-11
▁barrier	-11
▁fortunate	-11
ated	-11
▁memorable	-11
▁subtle	-11
▁shutdown	-11
▁Churchill	-11
▁processes	-11
▁Po	-11
That	-11
board	-11
▁gradually	-11
▁trusted	-11
▁ultra	-11
▁Private	-11
▁gallery	-11
era	-11
▁endured	-11
▁Portuguese	-11
▁teammates	-11
ay	-11
▁apologize	-11
▁assumed	-11
▁uncertain	-11
▁license	-11
▁exploit	-11
▁Against	-11
▁experiencing	-11
▁Peace	-11
gen	-11
▁Gas	-11
▁Ronald	-11
▁ambitions	-11
▁employ	-11
▁Pittsburgh	-11
▁Kings	-11
▁affecting	-11
▁valued	-11
▁tender	-11
▁reckon	-11
▁humour	-11
▁gesture	-11
ors	-11
▁lace	-11
▁bogey	-11
▁stripped	-11
▁Communist	-11
▁surprisingly	-11
▁transmission	-11
▁96	-11
▁arguabl	-11
▁Mum	-11
▁1.6	-11
yn	-11
ating	-11
▁Windsor	-11
▁freeze	-11
▁beam	-11
▁explicit	-11
▁random	-11
▁bite	-11
▁lover	-11
▁porn	-11
▁Pi	-11
▁coastal	-11
▁workforce	-11
▁costume	-11
▁heroes	-11
▁apologised	-11
▁Moyes	-11
▁bones	-11
▁Katy	-11
▁unfortunate	-11
▁Bernard	-11
▁CCTV	-11
▁Page	-11
▁Angel	-11
▁Han	-11
▁cure	-11
▁	-11
▁debts	-11
▁ugly	-11
▁secur	-11
▁magnificent	-11
▁impeachment	-11
▁Nancy	-11
▁Missouri	-11
▁	-11
▁Amber	-11
▁Bi	-11
▁operates	-11
▁divide	-11
▁hiring	-11
▁engaging	-11
▁torn	-11
▁patterns	-11
gi	-11
▁bash	-11
▁react	-11
▁drought	-11
▁tipped	-11
▁locals	-11
▁Diamond	-11
▁difficulty	-11
▁Brother	-11
▁errors	-11
19	-11
▁Wild	-11
▁Ash	-11
▁playoff	-11
▁massacre	-11
▁trafficking	-11
▁Surrey	-11
▁addressing	-11
▁tail	-11
▁1.4	-11
▁airports	-11
▁proving	-11
▁devoted	-11
▁anonymous	-11
bar	-11
▁outlets	-11
▁advocates	-11
▁Kensington	-11
▁Philippines	-11
Z	-11
▁bolster	-11
▁Alliance	-11
▁purposes	-11
▁Adrian	-11
▁loyalty	-11
▁Ad	-11
▁Dennis	-11
▁Manuel	-11
▁fortnight	-11
▁inmates	-11
▁beaches	-11
▁Jackie	-11
▁infamous	-11
▁Mayweather	-11
▁Casey	-11
▁Khloe	-11
▁Gerrard	-11
▁Rebecca	-11
▁priorities	-11
stone	-11
▁Martinez	-11
▁Very	-11
▁wickets	-11
kg	-11
▁alter	-11
▁imagination	-11
▁introduc	-11
▁Je	-11
▁Ya	-11
▁Ever	-11
▁delight	-11
▁Armstrong	-11
▁illegally	-11
▁replacing	-11
▁hungry	-11
▁minimal	-11
▁supports	-11
▁frustrating	-11
▁ceiling	-11
▁broadband	-11
▁Farah	-11
▁Ga	-11
▁aboard	-11
▁happiness	-11
▁Cat	-11
▁1988	-11
▁Drake	-11
▁confirmation	-11
▁WA	-11
▁delicate	-11
▁library	-11
▁insight	-11
▁Support	-11
▁contestants	-11
▁pizza	-11
▁pole	-11
▁Actor	-11
iest	-11
▁steam	-11
▁disruption	-11
▁Gaga	-11
▁appalling	-11
▁el	-11
▁efficiency	-11
▁lifting	-11
▁passport	-11
▁suggestions	-11
▁phenomenon	-11
▁BA	-11
▁resolved	-11
▁equipped	-11
▁collision	-11
▁Shakespeare	-11
ara	-11
▁Comey	-11
▁Bath	-11
▁firefighters	-11
▁battles	-11
▁Shaw	-11
▁beside	-11
▁offense	-11
▁rice	-11
▁successive	-11
▁shield	-11
▁boats	-11
▁preliminary	-11
▁threshold	-11
▁1986	-11
▁transparency	-11
▁occupied	-11
▁passage	-11
▁Roberto	-11
▁Fairfax	-11
▁load	-11
▁buyer	-11
▁dancer	-11
time	-11
▁affiliate	-11
▁pit	-11
▁mortgages	-11
▁Song	-11
▁Ha	-11
▁Dodgers	-11
▁Building	-11
▁op	-11
▁siblings	-11
▁91	-11
▁Tu	-11
▁bearing	-11
▁doubts	-11
▁Forces	-11
▁sectors	-11
▁stating	-11
▁kicks	-11
▁Wi	-11
gar	-11
And	-11
▁hacking	-11
▁Saints	-11
▁benchmark	-11
▁powder	-11
▁refund	-11
In	-11
▁wash	-11
▁appealing	-11
▁commitments	-11
▁Arnold	-11
▁requiring	-11
▁format	-11
▁Rafael	-11
qui	-11
▁Russians	-11
▁prince	-11
▁sprint	-11
▁underground	-11
▁cute	-11
▁satisfied	-11
▁anxious	-11
▁Knight	-11
ble	-11
Connor	-11
▁draws	-11
▁Er	-11
▁hailed	-11
▁consultation	-11
▁mysterious	-11
▁fi	-11
▁speeches	-11
▁donated	-11
▁barriers	-11
▁Todd	-11
▁Pay	-11
van	-11
▁Set	-11
▁shortage	-11
▁lobby	-11
▁Sha	-11
▁BST	-11
▁Eden	-11
▁mentor	-11
▁grace	-11
▁Galaxy	-11
▁vessel	-11
ial	-11
▁developers	-11
▁Bryant	-11
▁landmark	-11
▁SA	-11
▁restricted	-11
▁Ryder	-11
▁wicket	-11
▁profession	-11
▁Bryan	-11
▁realized	-11
▁traveling	-11
▁fitted	-11
▁Sgt	-11
▁Patriots	-11
▁creates	-11
▁garage	-11
▁View	-11
▁Vogue	-11
▁Cornwall	-11
▁Tests	-11
▁Dick	-11
▁uncle	-11
▁gambling	-11
▁08	-11
▁Battle	-11
▁safer	-11
iv	-11
▁Wells	-11
▁Previous	-11
▁silly	-11
af	-11
▁Pitt	-11
▁Singh	-11
ot	-11
▁Cape	-11
▁staged	-11
▁Using	-11
ery	-11
▁Belfast	-11
▁cult	-11
hu	-11
▁FTSE	-11
▁terrifying	-11
▁adventure	-11
▁examples	-11
▁Coach	-11
▁guitar	-11
▁recognized	-11
▁Fowler	-11
▁enemies	-11
▁Polish	-11
▁Prof	-11
▁arranged	-11
▁CO	-11
ab	-11
▁....	-11
▁hike	-11
▁cautious	-11
▁nursing	-11
▁organized	-11
17	-11
▁rubbish	-11
▁grief	-11
▁dependent	-11
▁staggering	-11
▁execution	-11
▁sums	-11
▁techniques	-11
▁FDA	-11
▁Carson	-11
When	-11
▁bailout	-11
▁MTV	-11
▁routes	-11
▁Banks	-11
▁communicate	-11
▁Rice	-11
▁40,000	-11
▁Prosecutors	-11
▁UEFA	-11
▁Hard	-11
▁approaching	-11
▁Born	-11
▁cousin	-11
▁dismiss	-11
▁toned	-11
▁Fernando	-11
▁citizenship	-11
▁Mississippi	-11
▁theater	-11
▁Root	-11
▁allowance	-11
▁1,500	-11
▁sympathy	-11
▁dresses	-11
▁Andrea	-11
▁predecessor	-11
▁Doctor	-11
▁pepper	-11
▁pursu	-11
▁subjects	-11
▁conscious	-11
▁chapter	-11
▁signals	-11
▁drives	-11
▁centers	-11
▁ought	-11
▁instantly	-11
▁visa	-11
▁habits	-11
▁Half	-11
▁accounting	-11
▁93	-11
▁Ibrahimovic	-11
▁restrict	-11
▁Vatican	-11
work	-11
▁mountains	-11
▁slick	-11
▁designs	-11
▁charm	-11
▁Madonna	-11
▁Sebastian	-11
▁tissue	-11
▁acres	-11
▁description	-11
▁handsome	-11
▁clad	-11
▁formula	-11
▁sadly	-11
▁Catherine	-11
▁lists	-11
▁McCarthy	-11
▁assaulted	-11
▁Bever	-11
▁Hundreds	-11
ick	-11
▁genius	-11
▁careers	-11
ring	-11
▁publicity	-11
▁Snapchat	-11
▁Mobile	-11
elle	-11
▁Officers	-11
▁Carr	-11
▁compelling	-11
▁1.1	-11
▁balanced	-11
▁updates	-11
▁confronted	-11
▁marathon	-11
net	-11
▁Tyson	-11
▁financially	-11
▁Shares	-11
▁optimism	-11
▁Airways	-11
▁disability	-11
▁chips	-11
▁1984	-11
▁110	-11
▁Shi	-11
▁thigh	-11
▁cheer	-11
▁Gingrich	-11
▁sealed	-11
▁flags	-11
▁Blacks	-11
▁Future	-11
▁thirds	-11
▁Libyan	-11
▁rookie	-11
▁Ellen	-11
▁Tax	-11
▁finest	-11
▁Mediterranean	-11
▁requirement	-11
▁dip	-11
▁councils	-11
▁deck	-11
▁09	-11
▁Dylan	-11
▁Mae	-11
▁marking	-11
▁Brooks	-11
▁swim	-11
▁Clearly	-11
▁transactions	-11
▁severely	-11
▁tricky	-11
▁projected	-11
▁Investment	-11
▁ladies	-11
▁offenders	-11
ib	-11
▁slide	-11
▁Victor	-11
▁AT	-11
▁Dark	-11
▁joins	-11
▁McConnell	-11
▁1.8	-11
▁Pence	-11
▁admission	-11
▁offset	-11
▁distant	-11
▁Yo	-11
▁disclosed	-11
▁fines	-11
▁350	-11
▁purple	-11
▁Data	-11
▁Convention	-11
▁Classic	-11
▁presentation	-11
▁Put	-11
▁departments	-11
▁competitions	-11
sisting	-11
ane	-11
▁Drug	-11
▁Actress	-11
▁pricing	-11
▁Modern	-11
▁suburb	-11
▁Erdogan	-11
▁Trudeau	-11
▁classified	-11
▁Ver	-11
▁snaps	-11
▁Liga	-11
▁pray	-11
▁reign	-11
▁logo	-11
▁wounds	-11
▁corrupt	-11
▁Beyonce	-11
▁demonstrations	-11
▁approaches	-11
▁beds	-11
ix	-11
▁restored	-11
▁dis	-11
Brien	-11
▁Match	-11
▁oxygen	-11
▁smashed	-11
▁sponsored	-11
ball	-11
▁obsessed	-11
▁immigrant	-11
▁beard	-11
▁Derek	-11
▁amateur	-11
▁Em	-11
▁operational	-11
▁championships	-11
▁Front	-11
▁versions	-11
▁branches	-11
▁exclusively	-11
▁Myanmar	-11
▁joking	-11
▁initiatives	-11
▁flown	-11
▁UFC	-11
▁Yu	-11
▁shore	-11
▁jungle	-11
▁Mountain	-11
▁champagne	-11
▁plunging	-11
▁juice	-11
▁offshore	-11
▁Chloe	-11
▁feeding	-11
▁declare	-11
▁accompany	-11
▁tan	-11
▁threaten	-11
▁coloured	-11
▁bomber	-11
▁transportation	-11
▁propaganda	-11
ena	-11
▁Full	-11
▁Keep	-11
▁Beauty	-11
▁300,000	-11
▁Remember	-11
▁Race	-11
▁arrangement	-11
▁releas	-11
▁fixtures	-11
▁borrowers	-11
▁disgrace	-11
▁Kids	-11
ura	-11
▁retreat	-11
▁concentrate	-11
▁Murdoch	-11
▁suite	-11
▁transaction	-11
▁pilots	-11
▁shorts	-11
▁Consumer	-11
▁Buckingham	-11
▁Gates	-11
▁Linda	-11
▁Eight	-11
▁disturbing	-11
▁Hopeful	-11
▁ratio	-11
▁Hearts	-11
▁Room	-11
▁memo	-11
▁seal	-11
▁Pearson	-11
▁Win	-11
▁Stakes	-11
▁Cricket	-11
▁unfortunately	-11
▁Gabriel	-11
▁shades	-11
▁categories	-11
▁venues	-11
▁pioneer	-11
▁tackling	-11
▁Halloween	-11
▁Che	-11
▁Romania	-11
▁Grey	-11
▁glorious	-11
▁Hu	-11
▁eyed	-11
▁betting	-11
▁duck	-11
▁credits	-11
▁Similar	-11
▁decisive	-11
▁Lanka	-11
▁bowling	-11
▁crowded	-11
▁customs	-11
▁Published	-11
▁Sainsbury	-11
▁singles	-11
▁Alice	-11
▁Border	-11
▁sang	-11
▁Richmond	-11
▁crews	-11
▁hostile	-11
town	-11
▁elaborate	-11
▁Rich	-11
▁structures	-11
▁meters	-11
▁250,000	-11
▁fundraising	-11
▁sued	-11
▁dangers	-11
▁sake	-11
▁stays	-11
ich	-11
▁stealing	-11
ari	-11
▁Follow	-11
▁Midlands	-11
▁transgender	-11
▁easing	-11
▁universe	-11
▁constituency	-11
▁Third	-11
▁Tri	-11
▁dé	-11
▁rebound	-11
▁Further	-11
▁Reagan	-11
▁Stokes	-11
▁extremists	-11
▁judged	-11
▁capabilities	-11
▁concerning	-11
▁senators	-11
▁copies	-11
ions	-11
▁180	-11
▁vintage	-11
car	-11
▁youngster	-11
▁blew	-11
▁été	-11
▁declar	-11
▁photographed	-11
▁Rita	-11
▁derby	-11
▁tally	-11
▁Son	-11
▁Investors	-11
▁Pyongyang	-11
▁stakes	-11
▁Constitution	-11
▁demonstration	-11
12	-11
▁Lloyds	-11
▁assembly	-11
▁Overall	-11
▁booking	-11
▁appetite	-11
▁Wallace	-11
▁absurd	-11
▁editing	-11
▁grandchildren	-11
▁Sch	-11
▁Connecticut	-11
▁Rudd	-11
▁wire	-11
ged	-11
▁theft	-11
▁inevitabl	-11
▁escort	-11
▁hamstring	-11
▁flaunt	-11
▁Studies	-11
▁exists	-11
▁tresses	-11
▁Wiggins	-11
▁Stop	-11
▁charter	-11
▁turnover	-11
▁hop	-11
▁True	-11
▁violation	-11
▁tables	-11
▁costly	-11
▁flames	-11
▁countryside	-11
▁Yankees	-11
▁implemented	-11
▁lasting	-11
▁Abbey	-11
▁Nicholas	-11
▁Bowie	-11
▁WHO	-11
▁Jeffrey	-11
▁Brit	-11
▁Glen	-11
▁Nice	-11
▁Alzheimer	-11
nes	-11
▁Mickelson	-11
▁Louisiana	-11
▁bride	-11
▁knees	-11
▁united	-11
▁blocking	-11
▁bargain	-11
▁drops	-11
▁Rihanna	-11
▁clinch	-11
▁Thai	-11
▁Bor	-11
▁lyrics	-11
▁r	-11
▁convincing	-11
▁slam	-11
▁Ti	-11
▁98	-11
▁whistle	-11
▁Remain	-11
▁poster	-11
▁revelations	-11
▁trucks	-11
▁Climate	-11
▁Bangladesh	-11
▁unity	-11
fi	-11
▁counterparts	-11
rin	-11
▁nightclub	-11
▁Players	-11
▁Direct	-11
▁Carroll	-11
▁fuell	-11
ium	-11
AM	-11
▁publish	-11
▁CDC	-11
▁Puerto	-11
▁glamour	-11
▁sentences	-11
▁Kar	-11
▁Jonny	-11
▁Dar	-11
.50	-11
▁15,000	-11
▁dose	-11
▁TMZ	-11
▁Ellis	-11
▁ID	-11
PM	-11
▁Memorial	-11
▁mandatory	-11
▁Members	-11
▁Doctors	-11
▁foster	-11
▁eliminate	-11
▁distinct	-11
▁Musk	-11
▁Sales	-11
▁Cash	-11
▁monetary	-11
▁Hitler	-11
ology	-11
▁MI	-11
▁Hernandez	-11
▁Kendall	-11
▁anthem	-11
▁download	-11
▁disrupt	-11
▁Android	-11
▁reassure	-11
▁palace	-11
▁Run	-11
▁picks	-11
▁bullet	-11
▁lane	-11
▁Rogers	-11
▁dear	-11
▁Tonight	-11
▁fashioned	-11
▁Barr	-11
▁treaty	-11
▁electorate	-11
▁Ant	-11
▁Better	-11
▁migrant	-11
▁diving	-11
▁lure	-11
▁prestigious	-11
▁flexible	-11
▁invitation	-11
ung	-11
▁Face	-11
▁switching	-11
▁fur	-11
tan	-11
▁notable	-11
▁wondered	-11
day	-11
▁Magic	-11
▁Arctic	-11
▁dawn	-11
▁abandon	-11
▁sells	-11
▁Opposition	-11
▁ramp	-11
▁Keeping	-11
▁Mi	-11
▁strategies	-11
▁hill	-11
gate	-11
▁0.5	-11
▁Aussie	-11
▁Kay	-11
▁Delta	-11
▁relate	-11
▁Sex	-11
▁securities	-11
30	-11
▁wet	-11
▁Samantha	-11
▁climbing	-11
▁sends	-11
▁etc	-11
▁printed	-11
▁Check	-11
▁displays	-11
tel	-11
▁Pierre	-11
▁HBO	-11
▁avec	-11
sson	-11
▁perception	-11
▁commissioned	-11
▁leak	-11
▁Grammy	-11
▁marine	-11
▁Critics	-11
▁Ve	-11
▁cooked	-11
▁tailor	-11
▁complet	-11
▁Bachelor	-11
▁audio	-11
▁syndrome	-11
▁mosque	-11
▁reader	-11
▁instructions	-11
▁Tech	-11
▁dishes	-11
▁expose	-11
▁prop	-11
▁conservatives	-11
▁Huddersfield	-11
▁suppose	-11
▁wears	-11
▁1979	-11
▁boring	-11
▁RBS	-11
▁Ri	-11
▁wrongdoing	-11
▁Leon	-11
▁folks	-11
▁attribut	-11
▁bears	-11
▁Olivia	-11
▁Yeah	-11
▁oversee	-11
▁ECB	-11
▁jets	-11
▁judicial	-11
pp	-11
▁suitable	-11
▁Robertson	-11
▁Cosby	-11
▁washing	-11
▁extremist	-11
▁railway	-11
▁Gibson	-11
▁Liz	-11
▁Stamford	-11
▁embraced	-11
▁prescription	-11
▁sweat	-11
▁Cairo	-11
▁Program	-11
▁Model	-11
▁unrest	-11
▁BP	-11
▁ballots	-11
▁curious	-11
▁140	-11
hill	-11
▁Ty	-11
▁publishing	-11
▁sustain	-11
▁donate	-11
▁rang	-11
▁Cam	-11
▁dumped	-11
▁toys	-11
▁recipe	-11
▁cats	-11
▁casting	-11
▁trace	-11
▁Spaniard	-11
▁Political	-11
▁divorced	-11
▁crisp	-11
▁credibility	-11
▁killings	-11
▁Aguero	-11
▁caring	-11
▁insurers	-11
▁XI	-11
▁absent	-11
▁robot	-11
▁nail	-11
▁objective	-11
▁travellers	-11
▁olive	-11
▁Walter	-11
▁Sunni	-11
▁cigarettes	-11
.00	-11
▁Flynn	-11
▁tattoo	-11
▁tobacco	-11
▁hub	-11
▁executed	-11
▁empire	-11
▁Dems	-11
▁acclaim	-11
▁assert	-11
▁sentencing	-11
▁neighbors	-11
▁Sar	-11
▁transparent	-11
ward	-11
▁placing	-11
▁disputed	-11
▁Tar	-11
▁Bra	-11
▁Hal	-11
▁buses	-11
▁hilarious	-11
▁sic	-11
ven	-11
▁floral	-11
▁cheating	-11
▁rebuild	-11
▁tenure	-11
▁Spa	-11
▁Sherlock	-11
▁weighed	-11
▁Ger	-11
▁scary	-11
▁Moss	-11
▁Mitch	-11
▁Seoul	-11
▁interference	-11
▁Leo	-11
▁annually	-11
▁stranger	-11
▁Premiership	-11
nal	-11
▁ESPN	-11
▁Lynch	-11
▁utility	-11
▁Between	-11
▁Nobel	-11
▁debris	-11
▁Madison	-11
▁shipping	-11
▁Disease	-11
▁indictment	-11
▁Des	-11
▁frankly	-11
▁cabin	-11
▁Together	-11
▁campaigners	-11
00	-11
▁pale	-11
▁refusal	-11
▁counted	-11
bury	-11
bu	-11
▁Shadow	-11
▁salaries	-11
▁heated	-11
▁Camilla	-11
▁grasp	-11
▁Ber	-11
▁thriller	-11
▁Prior	-11
▁addresses	-11
▁processing	-11
▁expectation	-11
▁developer	-11
cher	-11
▁Emergency	-11
▁1987	-11
▁creator	-11
▁rings	-11
▁adjusted	-11
▁Bulgaria	-11
▁Soon	-11
▁Lin	-11
▁goodbye	-11
▁Palm	-11
▁Say	-11
▁sensation	-11
▁fossil	-11
▁Gi	-11
▁km	-11
ile	-11
▁Challenge	-11
▁costing	-11
▁layer	-11
▁controlling	-11
▁zoo	-11
▁mega	-11
▁Andrews	-11
▁attorneys	-11
▁wisdom	-11
▁thrive	-11
▁Ivan	-11
▁registration	-11
▁Century	-11
lis	-11
▁recruitment	-11
.9	-11
▁gunman	-11
▁94	-11
▁disagree	-11
▁paintings	-11
ING	-11
▁tide	-11
▁defendant	-11
▁Alli	-11
▁patrol	-11
▁shaking	-11
15	-11
▁Industry	-11
▁robbery	-11
▁concussion	-11
▁deploy	-11
▁Miley	-11
▁Certainly	-11
▁representation	-11
▁traders	-11
▁Pelosi	-11
▁scrap	-11
▁evacuated	-11
▁relax	-11
▁imports	-11
▁willingness	-11
▁batting	-11
▁Sara	-11
▁Bruno	-11
11	-11
ical	-11
▁tournaments	-11
responsibilities	-11
▁150,000	-11
▁Nicolas	-11
▁lighting	-11
▁Portland	-11
▁nonprofit	-11
▁poorly	-11
▁Michel	-11
▁Order	-11
▁Thomson	-11
▁demonstrators	-11
▁Novak	-11
▁IMF	-11
▁Band	-11
▁Haye	-11
▁Norwegian	-11
▁splash	-11
ED	-11
cm	-11
ula	-11
▁97	-11
▁gentle	-11
▁tuck	-11
tu	-11
▁Heat	-11
▁districts	-11
▁swap	-11
▁casualties	-11
▁parole	-11
▁slump	-11
▁yoga	-11
oc	-11
▁Davidson	-11
▁commentary	-11
ver	-11
▁engineers	-11
▁Mirror	-11
▁nominations	-11
▁sheets	-11
▁Everybody	-11
▁rankings	-11
▁Brits	-11
▁Along	-11
▁scope	-11
▁beliefs	-11
▁biological	-11
ag	-11
▁storms	-11
▁Dundee	-11
▁liver	-11
▁shade	-11
▁leaning	-11
▁oppos	-11
▁complaining	-11
ington	-11
▁counties	-11
▁vessels	-11
▁iPad	-11
▁relay	-11
▁Gaal	-11
▁entertaining	-11
▁portray	-11
▁QPR	-11
fe	-11
▁bias	-11
▁comply	-11
▁sunshine	-11
▁disclose	-11
▁collar	-11
▁jersey	-11
▁Jenkins	-11
▁freed	-11
▁feminist	-11
▁manufacturer	-11
▁govern	-11
▁damages	-11
▁Oscars	-11
▁FT	-11
▁angle	-11
▁compliance	-11
▁violations	-11
▁Webb	-11
▁dignity	-11
▁Television	-11
▁chemicals	-11
▁Tunisia	-11
▁launches	-11
▁advise	-11
▁regain	-11
▁files	-11
▁Globe	-11
▁Wang	-11
▁holders	-11
▁revelation	-11
▁Ce	-11
▁globally	-11
▁stroll	-11
▁shark	-11
▁25,000	-11
▁Valencia	-11
war	-11
▁Bieber	-11
▁flexibility	-11
▁Franklin	-11
▁Serbia	-11
▁patch	-11
▁fabric	-11
▁applying	-11
▁wrap	-11
▁contracted	-11
▁ladder	-11
▁accessible	-11
▁boosted	-11
▁Zimbabwe	-11
▁QC	-11
▁Ca	-11
▁flooded	-11
▁Mall	-11
▁hunger	-11
▁searched	-11
▁exploring	-11
▁tongue	-11
▁Dog	-11
▁Mon	-11
▁backdrop	-11
▁artistic	-11
▁fabulous	-11
▁Short	-11
lying	-11
▁diplomats	-11
▁rider	-11
▁oh	-11
▁wars	-11
▁EPA	-11
▁grim	-11
yan	-11
▁framework	-11
ud	-11
▁Direction	-11
▁governance	-11
▁testified	-11
▁mounting	-11
▁studd	-11
▁flowing	-11
ient	-11
▁administrative	-11
▁Analysts	-11
▁earrings	-11
▁Reynolds	-11
▁exploration	-11
▁fragile	-11
▁spectrum	-11
▁Roma	-11
▁Ge	-11
▁graphic	-11
▁Ro	-11
▁criteria	-11
▁bankers	-11
▁rocks	-11
▁erupted	-11
▁Rico	-11
▁gent	-11
▁dominate	-11
▁believing	-11
▁Emmanuel	-11
▁styled	-11
▁inequality	-11
▁Modi	-11
gle	-11
▁Ki	-11
▁seekers	-11
▁hurricane	-11
ren	-11
▁1.7	-11
mp	-11
▁achieving	-11
▁receives	-11
▁fare	-11
▁architect	-11
▁Revenue	-11
▁Area	-11
▁sweep	-11
▁distress	-11
▁appealed	-11
▁credible	-11
▁Muhammad	-11
▁Lennon	-11
▁lake	-11
▁animated	-11
▁Pictures	-11
cy	-11
▁commonly	-11
▁125	-11
▁bra	-11
▁shine	-11
▁Tyler	-11
▁seeds	-11
▁boycott	-11
▁overlook	-11
▁anchor	-11
wear	-11
▁enterprise	-11
▁accidentally	-11
▁lipstick	-11
▁Mu	-11
▁shareholder	-11
▁sore	-11
▁Depp	-11
▁Sandy	-11
▁Phelps	-11
zer	-11
fer	-11
▁hackers	-11
▁Rickman	-11
▁Scarlett	-11
▁edit	-11
▁Iron	-11
▁swiftly	-11
▁breathe	-11
▁workout	-11
▁lacking	-11
▁Bu	-11
▁influenced	-11
▁embarrassed	-11
ub	-11
▁Omar	-11
▁Player	-11
▁acceptance	-11
▁renowned	-11
tor	-11
▁Poor	-11
▁Natural	-11
▁appoint	-11
ph	-11
▁awaiting	-11
zo	-11
▁Salmond	-11
▁courtesy	-11
▁Stevens	-11
stein	-11
▁Armed	-11
▁Hannah	-11
▁Elsewhere	-11
▁qualities	-11
▁fond	-11
▁upgrade	-11
▁Sharapova	-11
▁proclaim	-11
▁shell	-11
▁villages	-11
▁Commerce	-11
vi	-11
▁loaded	-11
▁Mor	-11
▁ageing	-11
▁tense	-11
▁imminent	-11
▁metre	-11
▁routinely	-11
▁tin	-11
▁Based	-11
len	-11
▁Ros	-11
▁sponsor	-11
▁wasted	-11
▁lining	-11
▁Getting	-11
▁Wal	-11
▁rap	-11
▁restrain	-11
▁disappearance	-11
▁musicians	-11
▁tent	-11
▁Brand	-11
▁boundaries	-11
▁highway	-11
▁Nike	-11
▁reflection	-11
▁Jesse	-11
▁adaptation	-11
▁declaration	-11
▁Alonso	-11
▁Dustin	-11
▁donation	-11
▁skipper	-11
▁recruit	-11
▁scan	-11
▁surgeon	-11
▁qualification	-11
▁Sugar	-11
▁Freeman	-11
ip	-11
▁partially	-11
▁occasional	-11
▁outrageous	-11
▁merger	-11
▁Boxing	-11
ens	-11
▁engines	-11
▁Rev	-11
▁spiritual	-11
▁flesh	-11
▁repeal	-11
▁mainland	-11
▁Devon	-11
▁Fraser	-11
▁coin	-11
▁monster	-11
▁happier	-11
▁Rex	-11
▁collecting	-11
.4	-11
▁Thrones	-11
▁gloves	-11
wan	-11
▁voluntary	-11
▁Cha	-11
▁Argentine	-11
▁dire	-11
nce	-11
▁Sh	-11
▁•	-11
▁observers	-11
▁Germain	-11
▁1982	-11
▁weaker	-11
ER	-11
▁retiring	-11
▁Nigerian	-11
▁podium	-11
▁outcomes	-11
▁Jared	-11
▁invite	-11
▁cleavage	-11
▁muscles	-11
▁Smart	-11
▁gene	-11
▁Box	-11
▁Fu	-11
▁Palin	-11
▁Diane	-11
▁welcoming	-11
▁Thanksgiving	-11
▁contrary	-11
▁outfits	-11
▁Kourtney	-11
▁Talk	-11
wi	-11
▁rubber	-11
▁contestant	-11
▁contention	-11
▁folk	-11
▁supreme	-11
▁Joyce	-11
▁Rovers	-11
▁flower	-11
▁Perez	-11
ure	-11
▁catastrophic	-11
▁wrist	-11
▁Natalie	-11
▁Nu	-11
▁Making	-11
▁responses	-11
▁permitted	-11
▁prevention	-11
▁Laden	-11
▁learnt	-11
▁hook	-11
▁rank	-11
▁Den	-11
▁donor	-11
▁160	-11
▁Sal	-11
▁turmoil	-11
▁chairs	-11
,000	-11
▁Berry	-11
▁Ci	-11
▁Pippa	-11
tra	-11
▁transfers	-11
▁Markets	-11
our	-11
▁advances	-11
▁oversight	-11
▁secretly	-11
▁concentration	-11
▁Subs	-11
▁Idol	-11
▁mixture	-11
▁knockout	-11
▁Round	-11
▁counterpart	-11
▁squeeze	-11
▁magical	-11
▁proudly	-11
▁custom	-11
▁fleeing	-11
▁articles	-11
▁wardrobe	-11
gu	-11
▁Tre	-11
▁loses	-11
▁declining	-11
So	-11
▁Vo	-11
▁Reports	-11
▁bout	-11
▁corn	-11
ati	-11
▁secrets	-11
▁Nasdaq	-11
▁dismissal	-11
▁hinted	-11
▁farms	-11
ala	-11
▁Oakland	-11
.7	-11
▁enjoys	-11
▁drill	-11
▁Workers	-11
▁lump	-11
▁Southgate	-11
▁Gomez	-11
▁divisions	-11
▁Wind	-11
▁Walmart	-11
▁boxer	-11
▁Jess	-11
▁Auto	-11
▁prone	-11
▁harmful	-11
▁Adele	-11
▁eBay	-11
ill	-11
can	-11
▁sofa	-11
▁Vettel	-11
▁persistent	-11
worth	-11
▁footballers	-11
▁gardens	-11
▁Arkansas	-11
▁significance	-11
▁chains	-11
▁flee	-11
▁Empire	-11
▁Griffin	-11
my	-11
▁electrical	-11
▁plunged	-11
▁philosophy	-11
▁riders	-11
▁Gavin	-11
▁knot	-11
▁till	-11
▁obligation	-11
▁shorter	-11
▁starter	-11
▁lets	-11
▁Communications	-11
▁Za	-11
▁Carey	-11
▁origin	-11
▁complications	-11
▁lethal	-11
▁superior	-11
▁Lampard	-11
▁slot	-11
▁Ba	-11
▁Hey	-11
▁economics	-11
▁patience	-11
▁Nixon	-11
▁respective	-11
▁Opera	-11
▁applies	-11
▁performer	-11
▁Motor	-11
▁eliminated	-11
▁scare	-11
▁Ch	-11
▁Environment	-11
▁steer	-11
▁Sue	-11
je	-11
▁revival	-11
▁finishes	-11
▁behave	-11
▁guided	-11
▁populations	-11
▁voiced	-11
▁editorial	-11
▁provoke	-11
▁shoe	-11
▁scrum	-11
▁pockets	-11
▁Mid	-11
▁threatens	-11
▁brains	-11
▁Deal	-11
▁illustrate	-11
ification	-11
▁Try	-11
▁cigarette	-11
▁Youth	-11
▁columnist	-11
▁Elliott	-11
▁renewable	-11
▁Heath	-11
▁dual	-11
▁Clooney	-11
▁poised	-11
▁Racing	-11
▁soaring	-11
▁bases	-11
▁shifted	-11
▁der	-11
▁serial	-11
iya	-11
▁overwhelmed	-11
▁Rosberg	-11
▁Cowell	-11
▁Yahoo	-11
▁Melania	-11
▁jumper	-11
▁listing	-11
▁doubles	-11
▁Burns	-11
▁Ram	-11
▁Environmental	-11
▁margins	-11
▁Unit	-11
▁throws	-11
▁lender	-11
▁Eye	-11
▁Tan	-11
▁Wolf	-11
▁reacted	-11
▁Somalia	-11
▁agrees	-11
▁gut	-11
▁unbelievable	-11
▁valid	-11
▁performers	-11
▁counting	-11
▁ho	-11
▁teammate	-11
▁Something	-11
▁stunt	-11
▁confrontation	-11
Â	-11
▁unaware	-11
▁trusts	-11
▁fold	-11
▁postponed	-11
▁availability	-11
▁pie	-11
▁Germans	-11
▁diplomat	-11
▁servants	-11
▁hug	-11
▁sheriff	-11
▁4.5	-11
▁drones	-11
▁alarming	-11
▁borrow	-11
▁despair	-11
▁suburbs	-11
ea	-11
▁organisers	-11
▁Freddie	-11
ada	-11
▁memoir	-11
▁Burton	-11
▁prayers	-11
▁blunt	-11
art	-11
▁mature	-11
▁07	-11
▁Number	-11
▁Less	-11
▁constitute	-11
▁Tea	-11
▁preview	-11
▁Representatives	-11
▁extract	-11
▁alike	-11
▁tropical	-11
▁Coronavirus	-11
▁Klitschko	-11
▁Deep	-11
▁thoroughly	-11
▁Index	-11
▁Travis	-11
▁productivity	-11
▁Bal	-11
▁canceled	-11
▁contributing	-11
▁buzz	-11
▁awesome	-11
▁impress	-11
▁cargo	-11
▁Ozil	-11
▁guilt	-11
pi	-11
▁Weather	-11
▁aviation	-11
▁Side	-11
▁relentless	-11
▁grid	-11
▁lovers	-11
▁Limited	-11
▁yen	-11
▁permanently	-11
▁Village	-11
▁nod	-11
▁Athletic	-11
▁scorer	-11
▁cop	-11
▁Tampa	-11
▁genes	-11
▁System	-11
▁cocktail	-11
▁accommodate	-11
▁Dakota	-11
▁psychologist	-11
▁Richardson	-11
▁presumabl	-11
▁Ice	-11
▁downturn	-11
▁5.5	-11
ika	-11
▁Albion	-11
▁strategist	-11
▁spa	-11
▁slower	-11
▁literature	-11
▁radiation	-11
▁supermarkets	-11
vis	-11
▁charts	-11
▁capped	-11
▁Leonardo	-11
▁showdown	-11
▁courses	-11
▁disclosure	-11
▁rehab	-11
▁clarity	-11
▁Megan	-11
eau	-11
▁Brett	-11
dale	-11
▁flick	-11
▁Planet	-11
▁straightforward	-11
▁vicious	-11
▁stir	-11
▁permit	-11
▁Hay	-11
▁Highway	-11
▁Neville	-11
▁1985	-11
▁consequence	-11
ida	-11
▁Universal	-11
▁Mc	-11
▁slowing	-11
of	-11
▁terrific	-11
▁clutch	-11
▁Wa	-11
▁wow	-11
▁install	-11
▁pills	-11
AL	-11
bra	-11
▁Barnes	-11
▁outlined	-11
▁attribute	-11
▁magnitude	-11
▁adorable	-11
▁Carol	-11
▁lend	-11
▁athletics	-11
▁Sharon	-11
▁distributed	-11
▁Boys	-11
▁detected	-11
▁risky	-11
▁wheelchair	-11
▁embarrassment	-11
▁Prevention	-11
▁ruin	-11
▁1981	-11
▁rip	-11
▁Sullivan	-11
▁Cara	-11
▁identical	-11
▁trophies	-11
▁mistaken	-11
▁7.5	-11
▁Ana	-11
▁tons	-11
▁plug	-11
▁mill	-11
▁gangs	-11
▁soup	-11
▁woke	-11
▁Gallery	-11
▁Pedro	-11
▁hatred	-11
▁accountable	-11
▁Manning	-11
▁Lambert	-11
▁wireless	-11
▁tours	-11
▁bonuses	-11
▁Abdul	-11
▁101	-11
▁banning	-11
ique	-11
▁Matthews	-11
▁Actually	-11
▁imagined	-11
25	-11
▁Jurgen	-11
▁terrified	-11
▁Going	-11
ins	-11
▁soared	-11
went	-11
▁eldest	-11
▁purse	-11
▁Conor	-11
▁abusive	-11
▁carriers	-11
row	-11
▁lads	-11
▁delicious	-11
▁indicates	-11
▁likelihood	-11
▁inspiring	-11
▁Gigi	-11
▁Bin	-11
▁Pink	-11
▁mechanism	-11
▁conservation	-11
▁greenhouse	-11
▁verbal	-11
▁prisoner	-11
▁suburban	-11
▁Inspector	-11
▁Cheltenham	-11
ali	-11
use	-11
▁Frenchman	-11
ef	-11
▁Athens	-11
▁Urban	-11
▁Stanford	-11
lock	-11
▁violated	-11
ston	-11
▁900	-11
▁Whitehall	-11
oo	-11
▁Tel	-11
▁rushing	-11
▁sequel	-11
▁Joan	-11
▁Bake	-11
▁patent	-11
▁Hopkins	-11
▁entrepreneur	-11
▁bio	-11
▁Magazine	-11
wise	-11
sha	-11
▁rallies	-11
ova	-11
▁Vancouver	-11
▁Borussi	-11
▁Organisation	-11
▁cheek	-11
▁Kyrgios	-11
▁quicker	-11
▁withdrawn	-11
▁Jolie	-11
▁allegation	-11
▁Hollande	-11
▁spike	-11
▁Years	-11
ations	-11
▁attacker	-11
▁Fish	-11
lb	-11
▁richest	-11
▁ré	-11
ping	-11
▁incumbent	-11
▁jazz	-11
rie	-11
▁Benitez	-11
▁ACT	-11
▁kilometres	-11
▁feat	-11
▁endorsed	-11
▁sponsors	-11
▁bay	-11
▁Bird	-11
▁releases	-11
▁calculated	-11
▁Bradford	-11
▁parked	-11
▁UCLA	-11
▁meantime	-11
▁piano	-11
▁Monica	-11
▁speeds	-11
ridge	-11
▁lineup	-11
▁adoption	-11
▁flip	-11
▁forum	-11
▁classroom	-11
tion	-11
▁Sheeran	-11
▁cafe	-11
▁intervene	-11
▁USC	-11
▁wherever	-11
▁Campaign	-11
ju	-11
▁contacts	-11
▁Curtis	-11
cu	-11
▁marginal	-11
My	-11
ON	-11
▁commerce	-11
▁reache	-11
▁thankful	-11
▁blanket	-11
▁flock	-11
▁Ja	-11
ua	-11
▁heroin	-11
▁okay	-11
▁tweeting	-11
▁exile	-11
▁cease	-11
▁misses	-11
▁unanimous	-11
▁delegation	-11
▁obligations	-11
▁scoop	-11
▁Valentine	-11
▁LGBT	-11
▁tribal	-11
▁athletic	-11
▁solidarity	-11
▁Reform	-11
▁sail	-11
▁shifting	-11
▁AI	-11
▁packaging	-11
▁pronounced	-11
▁incentive	-11
▁punished	-11
▁quirk	-11
▁failures	-11
▁Shah	-11
▁tribunal	-11
▁2022	-11
▁Blood	-11
lon	-11
▁Obamacare	-11
IA	-11
LA	-11
▁considers	-11
▁contender	-11
▁Kor	-11
▁Winston	-11
▁supplier	-11
▁Porter	-11
▁designers	-11
▁relieved	-11
▁budgets	-11
▁Daley	-11
▁database	-11
▁proceeds	-11
▁productive	-11
▁Trent	-11
▁Doug	-11
▁drift	-11
▁colourful	-11
IC	-11
▁stairs	-11
▁Abe	-11
▁arch	-11
▁missions	-11
az	-11
▁clause	-11
▁quarterly	-11
▁Santorum	-11
ima	-11
▁Iain	-11
▁hometown	-11
▁succession	-11
.8	-11
▁Earl	-11
▁flavour	-11
▁packages	-11
▁landlords	-11
▁Mind	-11
▁Chuck	-11
▁Clarkson	-11
▁defendants	-11
▁kidney	-11
▁uncovered	-11
▁misleading	-11
▁Save	-11
▁decorated	-11
▁steadi	-11
▁prepares	-11
▁bipartisan	-11
▁denim	-11
▁wary	-11
▁SEC	-11
▁brick	-11
▁reckless	-11
▁owe	-11
▁inclusion	-11
▁Digital	-11
▁Legal	-11
▁Stephanie	-11
▁vague	-11
▁Fe	-11
▁Systems	-11
▁Dis	-11
▁salad	-11
▁bleeding	-11
▁listened	-11
▁toddler	-11
▁correctly	-11
▁Thames	-11
▁Flight	-11
▁blank	-11
▁Eventually	-11
▁separation	-11
▁Use	-11
▁volatile	-11
▁riot	-11
▁aggression	-11
▁unemployed	-11
▁Talent	-11
▁endorsement	-11
▁Related	-11
▁Chad	-11
▁attraction	-11
▁inclusive	-11
▁w	-11
▁amendment	-11
▁rewarded	-11
▁mounted	-11
▁Goals	-11
low	-11
▁sleeve	-11
lie	-11
PA	-11
▁rehabilitation	-11
▁freezing	-11
sch	-11
▁indoor	-11
▁hockey	-11
▁floating	-11
▁tube	-11
▁persuaded	-11
▁Relations	-11
és	-11
▁tonnes	-11
.6	-11
▁6,000	-11
▁corporation	-11
▁cling	-11
ants	-11
▁Bali	-11
▁fatigue	-11
▁Assistant	-11
▁laptop	-11
▁rewards	-11
▁ditch	-11
▁feud	-11
▁smiles	-11
▁Heather	-11
▁Florence	-11
▁architecture	-11
▁exploded	-11
▁crunch	-11
▁touches	-11
▁Few	-11
▁debates	-11
▁justified	-11
14	-11
▁Estate	-11
▁revised	-11
▁Shiite	-11
▁evolution	-11
▁Froome	-11
▁suspend	-11
▁Portsmouth	-11
▁05	-11
▁Farrell	-11
▁sunny	-11
▁widow	-11
▁mph	-11
▁refuses	-11
▁grandparents	-11
▁Zoo	-11
▁feedback	-11
▁Cannes	-11
▁hail	-11
▁Schumer	-11
▁0.1	-11
▁Coutinho	-11
▁Interior	-11
▁reunited	-11
▁jewellery	-11
▁Personal	-11
▁Give	-11
▁skinny	-11
▁1977	-11
▁Payne	-11
▁intentions	-11
▁Drive	-11
▁Brothers	-11
▁Companies	-11
▁oven	-11
hr	-11
▁Coventry	-11
▁Pochettino	-11
▁Apprentice	-11
▁policing	-11
▁Ashton	-11
▁exam	-11
▁foreigners	-11
▁submit	-11
▁podcast	-11
▁childcare	-11
▁Leigh	-11
▁Salah	-11
▁Salman	-11
▁Richards	-11
▁Nature	-11
fty	-11
air	-11
▁sovereign	-11
9,000	-11
▁enabled	-11
▁cement	-11
▁Operation	-11
▁grocery	-11
▁tasks	-11
▁Non	-11
▁1975	-11
▁resemble	-11
.95	-11
▁Marvel	-11
▁chant	-11
▁freak	-11
▁mogul	-11
▁participating	-11
▁laughter	-11
av	-11
▁shelves	-11
▁preparations	-11
▁Wade	-11
▁dive	-11
▁quest	-11
▁silk	-11
18	-11
▁attitudes	-11
▁Angels	-11
▁zones	-11
▁1983	-11
▁speakers	-11
▁spacecraft	-11
▁Homeland	-11
▁emotionally	-11
eur	-11
▁mud	-11
▁min	-11
ata	-11
shi	-11
bb	-11
▁skilled	-11
▁bedrooms	-11
▁scam	-11
▁stretched	-11
▁Fame	-11
▁roster	-11
▁Drew	-11
▁queue	-11
▁deposits	-11
▁slept	-11
á	-11
▁meter	-11
▁sink	-11
▁barrels	-11
▁Angelina	-11
▁2.2	-11
▁homeowners	-11
▁Jen	-11
▁delivers	-11
▁Mumbai	-11
ide	-11
▁enthusiastic	-11
▁smartphones	-11
▁tolerance	-11
▁Mosul	-11
▁brink	-11
▁Chan	-11
ama	-11
▁asleep	-11
▁gaming	-11
▁Geneva	-11
▁overtime	-11
▁Philippe	-11
▁Find	-11
▁Phillip	-11
▁vest	-11
ona	-11
▁Len	-11
▁blessed	-11
▁Lindsay	-11
▁Tell	-11
▁audit	-11
▁clouds	-11
▁Study	-11
▁structural	-11
▁grants	-11
▁Congressional	-11
▁flagship	-11
▁McDonnell	-11
pper	-11
▁Horn	-11
▁transplant	-11
▁adverse	-11
▁quake	-11
▁capability	-11
mate	-11
▁turnout	-11
▁spends	-11
MA	-11
▁Dance	-11
▁Military	-11
▁Butler	-11
▁searches	-11
▁Rashford	-11
▁texts	-11
wide	-11
▁corporations	-11
▁Allardyce	-11
▁disciplinary	-11
▁Broncos	-11
▁lemon	-11
ica	-11
▁exhausted	-11
▁Ab	-11
▁Xinhua	-11
▁identifying	-11
▁Patel	-11
▁inherited	-11
▁obsession	-11
▁resource	-11
▁dare	-11
▁jaw	-11
▁shifts	-11
▁copper	-11
▁eventual	-11
ther	-11
▁thrilling	-11
▁succeeded	-11
▁monarch	-11
▁factories	-11
▁Annual	-11
▁Sarkozy	-11
▁flashed	-11
TV	-11
▁immense	-11
▁Mas	-11
▁alternatives	-11
▁Outside	-11
▁princess	-11
▁panels	-11
▁pause	-11
▁implementation	-11
▁Target	-11
▁partisan	-11
▁imposing	-11
▁Ze	-11
▁Sp	-11
▁expressing	-11
▁Istanbul	-11
▁misery	-11
▁sheep	-11
▁washed	-11
▁Victory	-11
▁beautifully	-11
▁Ambassador	-11
▁Danish	-11
▁pressures	-11
▁Common	-11
▁reserved	-11
▁disappear	-11
▁rack	-11
▁charming	-11
illa	-11
IS	-11
▁leverage	-11
▁brace	-11
▁ET	-11
▁wives	-11
▁socialist	-11
▁Hand	-11
▁slice	-11
▁1976	-11
▁sequence	-11
▁cried	-11
▁ethical	-11
▁dispatch	-11
TA	-11
▁certainty	-11
6,000	-11
▁Reds	-11
▁boards	-11
ml	-11
▁Gunners	-11
▁Ky	-11
▁Assange	-11
▁midst	-11
▁Min	-11
▁Students	-11
▁conclude	-11
▁Gill	-11
▁qualifier	-11
eh	-11
▁Tennis	-11
▁components	-11
▁translate	-11
▁detective	-11
burn	-11
▁plunge	-11
▁Pacquiao	-11
▁forensic	-11
▁temper	-11
▁Liberty	-11
▁miracle	-11
▁kissing	-11
▁subsidies	-11
▁owed	-11
▁supplied	-11
tes	-11
Or	-11
▁bothered	-11
▁Consider	-11
▁playoffs	-11
▁2,500	-11
▁traumatic	-11
▁Choice	-11
▁consulting	-11
▁earliest	-11
▁integration	-11
,500	-11
▁seize	-11
▁knocking	-11
▁Hilton	-11
▁ty	-11
▁compar	-11
▁Alastair	-11
▁Salt	-11
▁treasure	-11
▁jockey	-11
▁mall	-11
lia	-11
▁1974	-11
▁fuss	-11
▁400,000	-11
▁Sessions	-11
▁Kirk	-11
▁Start	-11
▁BMW	-11
▁prescribed	-11
▁Yard	-11
▁hybrid	-11
▁bi	-11
▁Joint	-11
▁Kit	-11
▁nerves	-11
▁popp	-11
▁milestone	-11
▁indigenous	-11
▁vibrant	-11
▁sights	-11
ale	-11
▁Leonard	-11
tal	-11
▁adequate	-11
▁fraction	-11
▁Bur	-11
▁flies	-11
▁contenders	-11
tro	-11
▁Curry	-11
▁sue	-11
▁Rain	-11
▁exchanges	-11
▁broadly	-11
▁Ah	-11
▁penny	-11
▁outright	-11
▁frock	-11
▁Northampton	-11
▁considerably	-11
▁hack	-11
▁accent	-11
▁lone	-11
▁Melissa	-11
▁vegan	-11
▁sovereignty	-11
▁Rules	-11
▁unnamed	-11
▁Jenny	-11
▁disgusting	-11
▁Income	-11
▁lion	-11
▁receiver	-11
▁shootings	-11
▁Chamberlain	-11
▁waving	-11
▁helicopters	-11
▁formidable	-11
▁Brandon	-11
▁Origin	-11
▁elbow	-11
▁prayer	-11
▁publisher	-11
▁bull	-11
key	-11
▁purely	-11
▁tracked	-11
▁rematch	-11
▁boarding	-11
▁Beyond	-11
▁ordeal	-11
▁blockbuster	-11
▁Preston	-11
▁vaccines	-11
▁echoed	-11
▁Design	-11
▁birdies	-11
▁portrayed	-11
▁Imagine	-11
▁Ennis	-11
▁testify	-11
▁exercises	-11
▁eve	-11
del	-11
▁Halifax	-11
▁assassination	-11
▁1972	-11
▁tanks	-11
▁Maine	-11
▁slender	-11
▁laboratory	-11
▁ignor	-11
▁Pass	-11
▁1000	-11
▁lesser	-11
▁recommendation	-11
▁trash	-11
▁stiff	-11
nie	-11
▁Slovakia	-11
▁Article	-11
pin	-11
▁ferry	-11
▁Venus	-11
▁cliff	-11
▁Partners	-11
▁reunion	-11
▁seasonal	-11
king	-11
▁Wallabies	-11
▁miserable	-11
▁daring	-11
▁Kat	-11
▁Newton	-11
▁App	-11
▁Gatland	-11
▁internationally	-11
dvisory	-11
▁occupation	-11
▁Tam	-11
cent	-11
▁Sachs	-11
ado	-11
▁Statistics	-11
▁Venice	-11
▁conversion	-11
▁labelled	-11
▁bans	-11
▁affection	-11
▁Forum	-11
▁bureau	-11
▁attackers	-11
▁sections	-11
istic	-11
▁penn	-11
▁Selena	-11
▁stranded	-11
▁Beast	-11
bin	-11
▁ha	-11
▁unpopular	-11
▁heating	-11
▁disputes	-11
▁Body	-11
▁lottery	-11
▁Emmy	-11
▁coordinat	-11
oli	-11
▁Lily	-11
▁Bahrain	-11
▁Finn	-11
▁journalism	-11
▁merit	-11
literary	-11
▁Dawn	-11
sey	-11
▁outing	-11
▁uprising	-11
▁enforce	-11
▁Cameroon	-11
▁wield	-11
gue	-11
▁fridge	-11
▁Peru	-11
▁Shaun	-11
▁ward	-11
▁Gay	-11
▁Carney	-11
▁0.2	-11
▁apartments	-11
▁kidnapping	-11
▁Abdullah	-11
▁lacked	-11
▁destinations	-11
▁trap	-11
▁Cincinnati	-11
▁dominance	-11
.99	-11
▁hamper	-11
▁agriculture	-11
▁deployment	-11
▁Kan	-11
▁acute	-11
▁sidelines	-11
▁lightly	-11
▁dancers	-11
▁cab	-11
▁Shop	-11
▁Rail	-11
▁lease	-11
▁predictions	-11
▁newborn	-11
ec	-11
▁rude	-11
▁fringe	-11
▁flare	-11
▁physique	-11
▁withdrew	-11
▁Bible	-11
▁depressed	-11
45	-11
▁1967	-11
▁watches	-11
▁battled	-11
▁trim	-11
▁60,000	-11
▁ruthless	-11
▁Dane	-11
nan	-11
▁Sierra	-11
2,000	-11
▁honoured	-11
▁recruited	-11
▁Abraham	-11
▁Norfolk	-11
▁03	-11
▁yacht	-11
▁gates	-11
▁tenants	-11
▁Parents	-11
▁floods	-11
▁Hadid	-11
▁surviving	-11
▁incentives	-11
▁Durham	-11
bridge	-11
nu	-11
▁Ministers	-11
▁uploaded	-11
▁suffers	-11
▁compil	-11
▁technological	-11
▁supplement	-11
▁bidding	-11
▁swift	-11
▁televised	-11
▁slogan	-11
▁eaten	-11
▁Zayn	-11
▁Hell	-11
▁Walking	-11
▁Christians	-11
▁locally	-11
▁Benedict	-11
▁meltdown	-11
▁ethics	-11
▁explosives	-11
▁Dale	-11
▁dirt	-11
▁Agreement	-11
iz	-11
▁Working	-11
▁hostage	-11
▁blowing	-11
▁designat	-11
▁batsman	-11
▁contractors	-11
▁groom	-11
▁Clean	-11
▁Lang	-11
▁bands	-11
▁Redknapp	-11
▁underwear	-11
▁Kabul	-11
▁stumble	-11
gg	-11
▁ruined	-11
▁admire	-11
▁commentator	-11
▁barred	-11
▁basket	-11
▁convey	-11
▁fluid	-11
21	-11
▁Gear	-11
▁flame	-11
▁judg	-11
EN	-11
▁¢	-11
▁Trevor	-11
▁humble	-11
ken	-11
▁Lance	-11
▁Step	-11
ban	-11
▁convenient	-11
▁detailing	-11
▁Torres	-11
▁1968	-11
▁interfere	-11
▁confidential	-11
▁corners	-11
▁completion	-11
▁credentials	-11
▁proves	-11
▁aux	-11
▁mice	-11
▁Revolution	-11
▁inquiries	-11
▁ralli	-11
▁benefited	-11
▁integrated	-11
▁viable	-11
ky	-11
▁Cyrus	-11
40	-11
ssigned	-11
▁Claude	-11
dar	-11
▁drilling	-11
▁Die	-11
▁Shell	-11
▁Somerset	-11
▁accomplished	-11
ches	-11
point	-11
▁priest	-11
▁committ	-11
▁functions	-11
▁stored	-11
▁cynical	-11
▁em	-11
▁advocacy	-11
▁Athletics	-11
▁u	-11
▁lonely	-11
▁litter	-11
▁hearings	-11
▁Queens	-11
▁Rolling	-11
▁songwriter	-11
▁reviewing	-11
▁denial	-11
▁flank	-11
▁Amid	-11
▁god	-11
▁negotiated	-11
ging	-11
▁scratch	-11
▁clearing	-11
▁pleasant	-11
din	-11
▁Fallon	-11
16	-11
▁Lancashire	-11
▁hunk	-11
▁evolved	-11
▁crashing	-11
▁Crawford	-11
▁Heritage	-11
▁dairy	-11
▁Junior	-11
▁Vermont	-11
▁repay	-11
▁distinctive	-11
▁interpretation	-11
▁wholly	-11
▁pork	-11
▁Ferdinand	-11
▁Scot	-11
▁churches	-11
▁appointments	-11
▁battered	-11
▁Greens	-11
▁2.3	-11
▁jurors	-11
▁provisions	-11
▁sneak	-11
▁manslaughter	-11
▁Scotsman	-11
▁Cap	-11
▁horizon	-11
▁inadequate	-11
▁wings	-11
ի	-11
ible	-11
q	-11
▁satisfaction	-11
▁Rupert	-11
▁occurs	-11
▁relish	-11
▁2.4	-11
▁transit	-11
pro	-11
▁kilometers	-11
▁Sutton	-11
▁Damascus	-11
▁Hassan	-11
▁decides	-11
▁contributor	-11
▁dealer	-11
▁photography	-11
IT	-11
▁Bru	-11
▁RAF	-11
▁farmer	-11
▁ample	-11
▁Rescue	-11
fin	-11
▁hammer	-11
▁crushed	-11
▁Need	-11
tle	-11
▁comparable	-11
▁Walk	-11
▁Champion	-11
▁conflicts	-11
▁Der	-11
▁bombings	-11
í	-11
▁tablets	-11
▁Fletcher	-11
▁Creek	-11
▁retained	-11
▁clay	-11
▁Living	-11
▁partial	-11
▁basement	-11
▁fits	-11
▁profitable	-11
▁Brook	-11
▁premature	-11
▁rhythm	-11
▁Luther	-11
▁Vince	-11
13	-11
▁Cable	-11
▁pitches	-11
▁Bou	-11
▁complement	-11
▁enduring	-11
▁wheels	-11
▁sh	-11
▁ar	-11
▁nominees	-11
▁surplus	-11
od	-11
▁extradition	-11
▁Wilder	-11
▁Guzman	-11
▁judgement	-11
▁monitored	-11
▁eagle	-11
▁volley	-11
▁List	-11
▁Stella	-11
▁agricultural	-11
ped	-11
▁Indonesian	-11
▁Cruise	-11
▁swor	-11
▁crashes	-11
▁Editor	-11
oni	-11
▁woes	-11
▁hitmaker	-11
▁component	-11
▁Williamson	-11
▁Ralph	-11
▁acquire	-11
▁hurdles	-11
▁bun	-11
▁rented	-11
▁Immigration	-11
▁Culture	-11
▁shook	-11
▁Hugo	-11
▁tuition	-11
▁strangers	-11
gh	-11
▁irony	-11
▁Honda	-11
▁deleted	-11
▁raced	-11
▁wiped	-11
▁Christ	-11
▁Evening	-11
aj	-11
▁Lives	-11
▁Logan	-11
▁02	-11
▁Brent	-11
▁Medicaid	-11
▁applause	-11
eb	-11
▁pill	-11
▁Pet	-11
▁medallist	-11
▁comfortably	-11
▁Mer	-11
▁Sox	-11
▁Bre	-11
▁extremism	-11
▁Gu	-11
ties	-11
▁prevail	-11
▁Kushner	-11
▁1973	-11
▁gifted	-11
▁flawed	-11
▁glance	-11
▁hated	-11
▁reactions	-11
▁casino	-11
▁Timothy	-11
▁restructuring	-11
▁log	-11
▁creatures	-11
ctively	-11
▁Berkshire	-11
▁lawsuits	-11
▁Pride	-11
▁dull	-11
▁Fleetwood	-11
▁NCAA	-11
▁accuracy	-11
▁ashamed	-11
▁beans	-11
▁carve	-11
ora	-11
▁assessed	-11
▁troubles	-11
▁stabbing	-11
▁virtue	-11
▁Debbie	-11
▁dictator	-11
▁tactical	-11
▁Sheen	-11
▁accountability	-11
▁guarantees	-11
▁helmet	-11
▁treats	-11
▁Mills	-11
▁authoriz	-11
▁recommends	-11
▁deepen	-11
▁talents	-11
▁1978	-11
▁Gil	-11
▁Want	-11
▁outlet	-11
▁Embassy	-11
▁®	-11
▁Stones	-11
▁yields	-11
enberg	-11
▁Close	-11
▁necklace	-11
▁Blackpool	-11
▁turf	-11
▁convictions	-11
▁fireworks	-11
▁Mur	-11
▁Click	-11
▁nuts	-11
▁volumes	-11
▁Investigators	-11
▁Visit	-11
▁McC	-11
▁snake	-11
▁worsen	-11
▁farming	-11
▁Barrett	-11
▁exceed	-11
▁Janet	-11
▁Austrian	-11
▁envoy	-11
▁institutional	-11
8,000	-11
▁endure	-11
▁touring	-11
▁te	-11
▁surgical	-11
▁disposal	-11
▁acre	-11
▁tricks	-11
▁sketch	-11
▁reflecting	-11
▁Kimmel	-11
▁Zoe	-11
▁murders	-11
▁Finland	-11
▁neighbourhood	-11
▁Singer	-11
vait	-11
▁Fri	-11
▁Fresh	-11
▁Neverthele	-11
▁surveyed	-11
▁Haiti	-11
▁injustice	-11
▁Hibs	-11
▁Roland	-11
▁lobbying	-11
▁insurgents	-11
▁Mich	-11
▁locker	-11
▁tactic	-11
▁glow	-11
▁historian	-11
▁belonging	-11
ami	-11
▁deliberate	-11
▁fortunes	-11
▁sellers	-11
.0	-11
▁Cowboys	-11
▁gush	-11
▁Amendment	-11
▁tsunami	-11
▁Raiders	-11
▁pubs	-11
▁detectives	-11
▁Shore	-11
▁brilliantly	-11
▁Thus	-11
▁Vardy	-11
▁replay	-11
▁Erin	-11
ité	-11
▁sleeves	-11
▁Mag	-11
▁confirming	-11
▁vary	-11
▁lighter	-11
▁sandwich	-11
▁coroner	-11
▁Beside	-11
▁1930	-11
▁indicat	-11
▁messaging	-11
▁1⁄2	-11
▁File	-11
▁Mill	-11
▁chaotic	-11
▁socks	-11
▁consumed	-11
▁Parkinson	-11
▁faint	-11
▁Glass	-11
▁Sporting	-11
▁poet	-11
▁topics	-11
▁reinforce	-11
▁impacts	-11
▁motorists	-11
▁privileged	-11
▁06	-11
▁clue	-11
▁Grande	-11
ight	-11
▁anticipate	-11
▁balcony	-11
▁advert	-11
▁respondents	-11
▁Dixon	-11
▁Schools	-11
ice	-11
▁renew	-11
▁infant	-11
▁Mata	-11
▁curve	-11
▁Westwood	-11
▁ghost	-11
▁seeded	-11
▁circles	-11
▁immunity	-11
▁helm	-11
▁Jill	-11
▁technically	-11
▁Record	-11
▁rivalry	-11
▁HMRC	-11
▁Master	-11
▁slowdown	-11
▁ordering	-11
GB	-11
▁Augusta	-11
▁8,000	-11
▁Britney	-11
▁pals	-11
▁fury	-11
▁intake	-11
▁debit	-11
▁popping	-11
▁Aid	-11
▁theaters	-11
▁elevated	-11
▁1940	-11
▁Rafa	-11
▁covet	-11
▁1969	-11
▁classical	-11
▁7,000	-11
▁Criminal	-11
▁Montreal	-11
▁accessories	-11
win	-11
▁Performance	-11
▁Noah	-11
top	-11
▁Ruby	-11
▁farewell	-11
▁toast	-11
▁infectious	-11
▁Theater	-11
▁Kiev	-11
▁Bashar	-11
▁summon	-11
▁yell	-11
▁palm	-11
▁skies	-11
olo	-11
▁Mix	-11
▁preference	-11
▁blaming	-11
▁chill	-11
▁lounge	-11
▁competitor	-11
▁Wawrinka	-11
▁ideology	-11
▁unchanged	-11
▁CD	-11
▁cow	-11
bel	-11
▁contempt	-11
▁Table	-11
▁luggage	-11
▁visitor	-11
▁defeats	-11
▁raids	-11
▁Official	-11
▁autonomous	-11
▁unpaid	-11
▁backwards	-11
▁assure	-11
▁Med	-11
▁Gilbert	-11
▁Denis	-11
▁Unless	-11
▁neglect	-11
▁overdose	-11
▁pig	-11
▁restart	-11
▁ray	-11
▁Copa	-11
▁institute	-11
▁courtroom	-11
▁Bio	-11
▁heaven	-11
▁advisor	-11
▁drafted	-11
▁dictate	-11
▁Chyna	-11
light	-11
bank	-11
▁Politics	-11
▁Asda	-11
▁villa	-11
▁LOS	-11
▁prey	-11
▁Ay	-11
▁deportation	-11
▁focuse	-11
RA	-11
▁Cummings	-11
▁PS	-11
▁Bon	-11
▁Sound	-11
▁ousted	-11
▁theories	-11
▁fin	-11
▁Bring	-11
▁echo	-11
▁Retail	-11
▁UAE	-11
▁Vale	-11
▁Trans	-11
▁plague	-11
▁Serie	-11
▁2.6	-11
dor	-11
▁LONDON	-11
▁ace	-11
ye	-11
▁photographers	-11
▁Away	-11
▁Holocaust	-11
▁ideological	-11
▁Kenneth	-11
▁whip	-11
▁Bet	-11
▁AIDS	-11
▁favoured	-11
▁Alison	-11
▁phenomenal	-11
50	-11
▁Housing	-11
▁Konta	-11
▁upside	-11
▁Jamaica	-11
▁Across	-11
▁announces	-11
▁Clement	-11
▁dealers	-11
▁Vienna	-11
▁mount	-11
ash	-11
▁simultaneously	-11
bound	-11
▁freely	-11
let	-11
▁Winner	-11
▁bunker	-11
▁incomes	-11
▁weakened	-11
▁banner	-11
▁cheat	-11
▁Caitlyn	-11
▁Paulo	-11
▁confirms	-11
▁Kal	-11
ade	-11
gy	-11
▁studios	-11
▁McLaren	-11
▁Sweet	-11
▁Block	-11
▁Abbas	-11
▁Lowe	-11
▁companion	-11
▁genre	-11
▁holder	-11
▁Lou	-11
▁Kurt	-11
ware	-11
▁Wil	-11
end	-11
▁overlooked	-11
▁bore	-11
▁Sadiq	-11
▁Sergeant	-11
▁bounced	-11
▁cite	-11
▁Danielle	-11
▁beneficial	-11
▁Ramsey	-11
▁Double	-11
▁aggressively	-11
▁communist	-11
▁Newman	-11
▁outspoken	-11
▁Noel	-11
▁travelers	-11
▁impacted	-11
▁Fall	-11
▁thrust	-11
▁myth	-11
hl	-11
ire	-11
▁Huawei	-11
▁Maduro	-11
▁Snowden	-11
▁programming	-11
▁existed	-11
▁survivor	-11
▁elephant	-11
▁aisle	-11
▁chopped	-11
▁Sub	-11
▁Shortly	-11
aw	-11
▁smash	-11
CA	-11
▁render	-11
▁Sciences	-11
▁grows	-11
▁Char	-11
▁bits	-11
▁revolutionary	-11
▁insurer	-11
▁coins	-11
▁urgency	-11
▁Rad	-11
▁Richie	-11
▁gamble	-11
▁commodity	-11
▁Sorry	-11
▁Ascot	-11
▁cosy	-11
▁Fat	-11
▁04	-11
▁hardware	-11
▁shooter	-11
ris	-11
▁saga	-11
og	-11
▁pensioners	-11
▁tablet	-11
▁issu	-11
3,000	-11
▁tackles	-11
▁Referee	-11
▁Jets	-11
▁Minutes	-11
▁Lancaster	-11
▁homer	-11
▁honey	-11
ato	-11
▁Tree	-11
▁displaced	-11
▁von	-11
▁surfaced	-11
▁Silicon	-11
▁organ	-11
▁Meet	-11
▁Thunder	-11
▁Records	-11
▁Franco	-11
▁Evan	-11
▁parenting	-11
▁cooperate	-11
▁chemistry	-11
For	-11
▁lid	-11
▁NHL	-11
▁inspection	-11
▁Share	-11
▁Qantas	-11
▁dump	-11
▁Nato	-11
▁Holy	-11
▁provincial	-11
▁adapted	-11
▁particles	-11
▁harvest	-11
▁Lisbon	-11
▁castle	-11
▁hormone	-11
▁Due	-11
▁overweight	-11
▁Contact	-11
▁examining	-11
▁Hor	-11
▁Carlo	-11
▁gasoline	-11
▁1971	-11
SA	-11
▁pursued	-11
▁surpass	-11
▁Zuckerberg	-11
.10	-11
▁accidents	-11
▁hospitality	-11
▁homeland	-11
▁Exeter	-11
▁Rams	-11
▁spectacle	-11
wn	-11
▁substantially	-11
▁fixing	-11
▁massage	-11
▁Mariah	-11
▁Often	-11
▁throne	-11
▁Kieran	-11
▁aunt	-11
▁Fiona	-11
▁Lebanese	-11
▁Nazis	-11
▁Survey	-11
▁Main	-11
▁Zlatan	-11
▁unconscious	-11
▁Windows	-11
fu	-11
▁pad	-11
▁Extra	-11
▁Marines	-11
▁Burke	-11
▁sont	-11
▁Dhabi	-11
▁Pra	-11
▁Pe	-11
▁MS	-11
▁chatting	-11
▁spat	-11
▁mocked	-11
▁calf	-11
▁dock	-11
▁forming	-11
ative	-11
▁riots	-11
ero	-11
▁Spice	-11
▁logic	-11
▁skull	-11
▁Customs	-11
uck	-11
▁Note	-11
▁effectiveness	-11
▁Fo	-11
▁lengths	-11
▁veto	-11
▁urges	-11
▁commentators	-11
▁Corps	-11
▁mob	-11
▁Sand	-11
▁sack	-11
▁leur	-11
▁punish	-11
▁Joy	-11
▁laughs	-11
▁Detective	-11
▁rumoured	-11
▁Malik	-11
▁premises	-11
▁Wonder	-11
▁linking	-11
lands	-11
▁grandson	-11
▁Vote	-11
▁disorders	-11
▁Cyprus	-11
▁Nissan	-11
red	-11
mus	-11
▁slashed	-11
▁revive	-11
▁mentality	-11
▁mobility	-11
▁Cut	-11
rick	-11
▁cheering	-11
▁backgrounds	-11
▁Gun	-11
▁Milwaukee	-11
om	-11
▁Mission	-11
▁Hussein	-11
▁supermodel	-11
▁Hello	-11
▁aerial	-11
▁challenger	-11
▁1964	-11
▁Thor	-11
▁pact	-11
▁salmon	-11
▁confusing	-11
▁Vanessa	-11
ob	-11
▁healthier	-11
▁forwards	-11
▁positively	-11
▁albums	-11
ert	-11
▁evacuation	-11
▁twenty	-11
▁sleek	-11
▁rounded	-11
▁lied	-11
à	-11
▁poorest	-11
▁seller	-11
▁0.7	-11
▁charitable	-11
▁Cuomo	-11
lar	-11
▁Ricky	-11
▁loop	-11
▁Sheikh	-11
▁excluded	-11
▁Dear	-11
▁whale	-11
▁Amsterdam	-11
▁lesbian	-11
▁Temple	-11
▁layers	-11
▁authentic	-11
RE	-11
▁Pompeo	-11
▁Animal	-11
▁minorities	-11
▁Forbes	-11
NA	-11
▁tri	-11
▁Circuit	-11
▁Ren	-11
60	-11
▁cheapest	-11
▁Cost	-11
▁shortages	-11
▁reiterat	-11
▁cage	-11
▁cave	-11
▁ANGEL	-11
▁Cycling	-11
▁dioxide	-11
▁Johnston	-11
▁Hezbollah	-11
7,000	-11
hal	-11
▁plates	-11
▁Gaddafi	-11
▁Movie	-11
▁reversed	-11
▁reopening	-11
▁Frost	-11
▁Ra	-11
▁sizes	-11
▁referees	-11
▁kingdom	-11
▁mortality	-11
▁cattle	-11
▁frequency	-11
▁spine	-11
▁Dress	-11
▁Montana	-11
27	-11
▁vitamin	-11
▁floors	-11
▁Usain	-11
▁unveil	-11
▁militia	-11
▁Cor	-11
▁Nashville	-11
▁Steel	-11
▁Tha	-11
▁invented	-11
▁injection	-11
▁firearms	-11
▁Clippers	-11
▁ammunition	-11
▁Wildlife	-11
▁Quinn	-11
▁cha	-11
▁Hispanic	-11
▁deliveries	-11
▁Found	-11
▁coincide	-11
24	-11
▁mock	-11
▁viewer	-11
▁Isle	-11
▁subsidiary	-11
▁oblig	-11
▁scrapped	-11
▁sweater	-11
▁Venezuelan	-11
▁belongs	-11
▁unfold	-11
▁Argos	-11
▁honours	-11
▁ma	-11
▁Nar	-11
▁Ta	-11
▁accelerate	-11
▁prosperity	-11
lor	-11
▁Naomi	-11
▁Always	-11
▁atop	-11
▁fallout	-11
▁wildly	-11
▁lightning	-11
ters	-11
▁Residents	-11
▁dissent	-11
▁garlic	-11
▁Card	-11
▁prisons	-11
▁Allan	-11
▁audition	-11
▁Marseille	-11
▁crowned	-11
▁protections	-11
▁spiral	-11
▁medicines	-11
▁handbag	-11
▁Malaysian	-11
▁purchasing	-11
▁burns	-11
▁rolls	-11
nell	-11
▁contested	-11
▁remainder	-11
▁instruments	-11
▁0.3	-11
▁surrender	-11
▁Pac	-11
▁vent	-11
▁Command	-11
▁divisive	-11
▁batteries	-11
▁NYC	-11
▁bullets	-11
▁colleges	-11
fo	-11
▁concessions	-11
▁Rat	-11
▁healing	-11
▁Grenfell	-11
▁halted	-11
▁garner	-11
▁resistant	-11
▁catches	-11
▁coordinator	-11
▁destin	-11
▁Pu	-11
▁interact	-11
▁pornography	-11
inger	-11
▁LLC	-11
▁sticks	-11
▁tempted	-11
▁Days	-11
▁Beau	-11
▁looming	-11
esh	-11
▁VAT	-11
▁millionaire	-11
▁crops	-11
▁smiled	-11
▁setback	-11
▁overturned	-11
▁navigate	-11
▁Electric	-11
▁jam	-11
▁Strauss	-11
▁honored	-11
▁Gemma	-11
▁Keane	-11
▁Jobs	-11
▁Hayes	-11
▁sadness	-11
▁Bla	-11
▁bell	-11
▁Sofia	-11
uff	-11
ign	-11
▁compassion	-11
▁Chrysler	-11
▁Wagner	-11
▁Ryanair	-11
▁apple	-11
▁nationalist	-11
▁Montgomery	-11
▁Indies	-11
▁doomed	-11
AN	-11
▁tooth	-11
▁IN	-11
▁Prison	-11
75	-11
▁cough	-11
▁Beck	-11
▁parallel	-11
▁hearted	-11
▁Twickenham	-11
▁dazzling	-11
▁Goldsmith	-11
box	-11
▁Wine	-11
▁Epstein	-11
▁pets	-11
▁Lt	-11
ene	-11
▁quo	-11
▁Courtney	-11
▁170	-11
▁Amal	-11
▁prolonged	-11
▁Alexandra	-11
▁Sevilla	-11
▁pivotal	-11
▁outline	-11
▁rides	-11
▁2.7	-11
▁Tiffany	-11
▁modelling	-11
▁Ramos	-11
▁spectators	-11
▁touchdowns	-11
▁investigator	-11
▁Roth	-11
▁adamant	-11
▁hotte	-11
▁Elle	-11
▁Sources	-11
23	-11
▁futures	-11
ux	-11
▁heap	-11
▁liability	-11
▁violate	-11
▁Congo	-11
▁Sat	-11
▁assertion	-11
▁regrets	-11
▁terrace	-11
ira	-11
▁overturn	-11
▁Bundesliga	-11
▁harbour	-11
▁nephew	-11
▁Edmund	-11
pen	-11
▁labels	-11
▁je	-11
▁Behind	-11
▁Either	-11
▁Ground	-11
▁Gala	-11
▁faithful	-11
▁Gre	-11
▁mo	-11
cho	-11
▁Chiefs	-11
▁450	-11
▁Isis	-11
▁Beatles	-11
▁broadcasting	-11
▁Apparent	-11
▁Kitchen	-11
▁sponsorship	-11
▁gaps	-11
▁catwalk	-11
▁nest	-11
▁neighborhoods	-11
▁Gallagher	-11
▁Average	-11
▁Chen	-11
▁lands	-11
▁mins	-11
▁contractor	-11
▁laser	-11
▁critically	-11
▁Deutsche	-11
▁regulate	-11
▁IRA	-11
▁canvas	-11
▁verge	-11
cat	-11
▁kills	-11
▁sin	-11
▁assembled	-11
▁prohibit	-11
▁undertake	-11
ving	-11
▁Beth	-11
▁Santos	-11
▁Ly	-11
▁darkness	-11
▁puff	-11
▁Mann	-11
▁inspector	-11
▁exotic	-11
ros	-11
▁shuttle	-11
▁cognitive	-11
US	-11
▁Uruguay	-11
▁Fiji	-11
▁exempt	-11
▁Catalan	-11
▁Graeme	-11
▁Chavez	-11
▁Hague	-11
▁Gerard	-11
▁eased	-11
▁Holiday	-11
kh	-11
▁pharmaceutical	-11
▁consistency	-11
▁Gwen	-11
▁j	-11
▁intriguing	-11
enabling	-11
iel	-11
▁pinch	-11
ose	-11
▁bombshell	-11
▁Analysis	-11
▁dried	-11
▁marketplace	-11
70	-11
▁laundering	-11
bie	-11
▁experimental	-11
▁Hindu	-11
▁instrument	-11
▁dividends	-11
book	-11
▁campaigner	-11
▁heartbreaking	-11
▁participated	-11
▁composed	-11
▁Piers	-11
▁Townsend	-11
mark	-11
▁Search	-11
▁attends	-11
▁Mali	-11
▁uncertainties	-11
▁exhibit	-11
▁Pensions	-11
▁shattered	-11
▁experiments	-11
▁Bulldogs	-11
▁Amir	-11
zy	-11
▁embracing	-11
▁Baldwin	-11
▁ei	-11
▁Mat	-11
▁pave	-11
▁Ak	-11
par	-11
▁specialists	-11
▁rant	-11
▁obscure	-11
▁ballistic	-11
▁Presidential	-11
▁Mart	-11
▁Adding	-11
▁Mortgage	-11
▁vivid	-11
▁themed	-11
▁sword	-11
▁Mubarak	-11
▁Lion	-11
▁potent	-11
▁coincidence	-11
▁Romelu	-11
▁turnaround	-11
▁strap	-11
▁Boyd	-11
▁adorn	-11
▁Sol	-11
▁Rey	-11
▁Access	-11
▁Lind	-11
▁insult	-11
▁Mohammad	-11
▁awaited	-11
▁Transportation	-11
▁fares	-11
▁denounc	-11
▁sexuality	-11
▁Fidel	-11
▁Lost	-11
▁minus	-11
▁exams	-11
▁destructive	-11
ric	-11
▁unite	-11
▁installation	-11
▁ou	-11
▁unwanted	-11
▁Weekly	-11
▁hashtag	-11
▁hurting	-11
▁Artist	-11
▁Host	-11
su	-11
▁lamb	-11
▁populist	-11
▁Kill	-11
▁sway	-11
▁planted	-11
▁rep	-11
▁electronics	-11
▁Mugabe	-11
▁Nationwide	-11
▁sprawling	-11
▁Gregory	-11
▁novels	-11
▁bullied	-11
▁Merseyside	-11
▁flawless	-11
▁frightening	-11
▁restraint	-11
▁robots	-11
▁Clare	-11
▁premiership	-11
ND	-11
▁grabbing	-11
▁wit	-11
▁Marsh	-11
nis	-11
▁endangered	-11
▁Minneapolis	-11
▁inaugural	-11
▁Pin	-11
▁1,200	-11
▁Stay	-11
▁Holdings	-11
▁predominant	-11
▁safeguard	-12
▁trendy	-12
▁scandals	-12
▁protesting	-12
▁Willie	-12
lee	-12
▁criticise	-12
▁Troy	-12
▁whatsoever	-12
▁assuming	-12
▁posh	-12
try	-12
▁performs	-12
▁Economics	-12
▁continual	-12
woman	-12
▁compromised	-12
▁Property	-12
▁baking	-12
▁dedication	-12
burg	-12
▁Guinea	-12
▁Base	-12
▁Zidane	-12
▁endorse	-12
▁sympathetic	-12
rk	-12
like	-12
etti	-12
▁Apart	-12
▁DailyMail	-12
▁Mandela	-12
busing	-12
▁disrupted	-12
▁straw	-12
▁graduates	-12
▁northeast	-12
ello	-12
▁spite	-12
▁Marr	-12
▁pipe	-12
▁input	-12
▁Apollo	-12
▁Oprah	-12
▁1.9	-12
▁Kerr	-12
▁SUV	-12
▁holy	-12
▁advises	-12
▁Holyrood	-12
▁FILE	-12
▁Case	-12
▁recipes	-12
▁overhead	-12
▁societies	-12
▁turkey	-12
▁precedent	-12
▁laps	-12
▁Eva	-12
ries	-12
▁prospective	-12
▁sneakers	-12
▁Ahead	-12
▁astronauts	-12
SE	-12
▁bids	-12
▁convenience	-12
▁relaxing	-12
▁lad	-12
▁fashionable	-12
▁blazer	-12
▁Tara	-12
▁2.8	-12
ben	-12
▁Past	-12
▁functioning	-12
▁Guide	-12
aux	-12
▁chemotherapy	-12
▁probation	-12
▁cotton	-12
▁alleges	-12
▁lash	-12
▁grain	-12
▁Fra	-12
▁Resources	-12
▁Already	-12
▁cartoon	-12
▁starlet	-12
▁Gor	-12
ó	-12
▁veil	-12
▁shiny	-12
▁stones	-12
▁cord	-12
▁defining	-12
▁Ye	-12
▁Grade	-12
▁Join	-12
▁worship	-12
▁Sharp	-12
▁physician	-12
▁Appeal	-12
▁Barca	-12
▁Monk	-12
▁stats	-12
▁dreadful	-12
▁span	-12
▁asthma	-12
▁robbed	-12
▁capitalism	-12
▁chilling	-12
▁reopened	-12
NS	-12
▁hi	-12
▁hurl	-12
▁contents	-12
▁remotely	-12
▁admired	-12
▁su	-12
▁Gardens	-12
▁certificate	-12
dia	-12
▁Panthers	-12
▁selfies	-12
▁propos	-12
▁Dawson	-12
▁Gro	-12
▁poorer	-12
▁reconciliation	-12
▁Ultimately	-12
▁culminat	-12
▁bowler	-12
▁rational	-12
▁Cur	-12
▁forgive	-12
most	-12
▁sailing	-12
▁hats	-12
▁closures	-12
gov	-12
▁Welcome	-12
▁yeah	-12
▁northwest	-12
▁Vic	-12
▁McG	-12
▁Maguire	-12
▁martial	-12
▁911	-12
▁Sim	-12
▁regulated	-12
▁equaliser	-12
▁heightened	-12
As	-12
▁pope	-12
▁detainees	-12
▁symbolic	-12
▁swirl	-12
▁Sin	-12
▁rifle	-12
▁Miranda	-12
▁Coming	-12
▁Airbus	-12
▁Maxwell	-12
room	-12
ili	-12
▁Job	-12
▁Bulgarian	-12
▁clearance	-12
▁Pool	-12
▁youthful	-12
▁Large	-12
▁observation	-12
gin	-12
▁warehouse	-12
▁creativity	-12
▁instances	-12
▁relegated	-12
▁gunmen	-12
▁recruiting	-12
▁shaken	-12
▁Ave	-12
▁excuses	-12
▁policeman	-12
▁neckline	-12
▁subway	-12
gged	-12
▁separately	-12
▁estranged	-12
▁distracted	-12
▁12,000	-12
▁potatoes	-12
▁traditions	-12
▁lens	-12
▁crush	-12
68	-12
▁Memphis	-12
▁villain	-12
▁Norton	-12
▁fool	-12
▁facilitate	-12
▁belly	-12
▁leisure	-12
▁possibilities	-12
▁Juncker	-12
▁Knox	-12
▁obese	-12
▁Perfect	-12
▁naval	-12
▁cleaner	-12
rat	-12
▁Auckland	-12
▁Olivier	-12
▁conscience	-12
▁warmer	-12
▁foolish	-12
▁bombers	-12
rate	-12
▁alien	-12
▁EastEnders	-12
▁entrepreneurs	-12
aki	-12
lli	-12
wick	-12
▁Code	-12
▁kidnapped	-12
▁glossy	-12
far	-12
▁skiing	-12
▁Rover	-12
▁Lab	-12
▁generat	-12
Ã	-12
▁cholesterol	-12
▁autism	-12
▁Hogan	-12
▁Native	-12
▁Cast	-12
▁resilience	-12
22	-12
▁Hans	-12
▁trailing	-12
▁breed	-12
▁thorough	-12
▁founding	-12
▁limitations	-12
▁Normal	-12
▁111	-12
▁Pick	-12
▁Indians	-12
90	-12
▁Bannon	-12
▁paperwork	-12
▁2.1	-12
▁Mis	-12
▁Jade	-12
OR	-12
▁smallest	-12
▁highlighting	-12
ST	-12
35	-12
▁slave	-12
▁Riley	-12
▁exploitation	-12
▁fictional	-12
gel	-12
47	-12
▁Leslie	-12
▁crystal	-12
▁Klein	-12
elli	-12
yl	-12
cal	-12
▁inflicted	-12
▁rigorous	-12
▁stretching	-12
▁applicants	-12
▁gaze	-12
▁balloon	-12
▁Ju	-12
▁abilities	-12
▁bleak	-12
▁drunken	-12
▁predictable	-12
▁Liu	-12
▁gravity	-12
▁poisoning	-12
▁violat	-12
▁slavery	-12
▁Nou	-12
▁hover	-12
▁Latino	-12
▁Reddit	-12
▁staging	-12
▁Heidi	-12
die	-12
▁float	-12
kan	-12
▁references	-12
▁troubling	-12
▁Cate	-12
▁eyebrows	-12
▁Tina	-12
▁fairness	-12
▁Dal	-12
▁identification	-12
▁Barkley	-12
▁concerts	-12
▁cyclist	-12
▁refuge	-12
▁sided	-12
▁Fear	-12
▁protocol	-12
▁wrongly	-12
xi	-12
val	-12
▁Shu	-12
oz	-12
▁Cho	-12
4,000	-12
▁1966	-12
▁hood	-12
▁essay	-12
▁municipal	-12
▁blows	-12
▁rumors	-12
▁rejection	-12
▁hacked	-12
▁Boyle	-12
▁processed	-12
▁cops	-12
▁gossip	-12
▁Stand	-12
▁clips	-12
▁Representative	-12
▁handy	-12
▁CA	-12
▁Boehner	-12
▁Glastonbury	-12
▁Qaida	-12
ons	-12
▁Matter	-12
▁showers	-12
▁GAAP	-12
▁Professional	-12
dan	-12
▁Spacey	-12
▁115	-12
kov	-12
▁scans	-12
▁Chanel	-12
▁unwilling	-12
▁Upper	-12
▁Petersburg	-12
bs	-12
▁Ker	-12
▁lungs	-12
▁aesthetic	-12
tch	-12
away	-12
▁360	-12
▁inauguration	-12
▁inherent	-12
▁messy	-12
▁Centers	-12
▁Nasa	-12
▁skip	-12
▁distinction	-12
▁nationally	-12
▁undercover	-12
▁dense	-12
▁bucket	-12
▁barrister	-12
▁Nepal	-12
▁para	-12
▁nursery	-12
LE	-12
▁strengthening	-12
▁unexpectedly	-12
▁Darling	-12
To	-12
▁provocative	-12
ox	-12
▁cared	-12
▁Trophy	-12
▁limp	-12
▁Haram	-12
gie	-12
▁MoD	-12
▁disagreement	-12
▁Newport	-12
▁Peninsula	-12
▁consuming	-12
▁poetry	-12
▁economically	-12
▁doses	-12
▁Hoffman	-12
▁Tor	-12
▁Eagle	-12
▁Bat	-12
▁Keira	-12
▁steak	-12
▁encountered	-12
▁remarkabl	-12
▁si	-12
▁scarce	-12
▁footsteps	-12
▁IOC	-12
ei	-12
▁luxurious	-12
ér	-12
▁er	-12
▁illnesses	-12
▁tub	-12
▁NOT	-12
▁innocence	-12
▁banker	-12
▁Self	-12
ock	-12
▁consume	-12
▁Mont	-12
▁shrink	-12
▁prejudice	-12
▁organs	-12
▁wander	-12
▁Library	-12
▁understandable	-12
▁heal	-12
▁Questions	-12
▁proposition	-12
▁consciousness	-12
▁amass	-12
▁expenditure	-12
▁Aviation	-12
▁cups	-12
▁ft	-12
▁outgoing	-12
55	-12
▁Olympian	-12
▁shelf	-12
sec	-12
▁UKIP	-12
▁excluding	-12
▁Monte	-12
▁Trott	-12
▁prostate	-12
uri	-12
▁surreal	-12
▁flashing	-12
▁Spears	-12
▁fiance	-12
▁replies	-12
▁fist	-12
▁binding	-12
▁antibiotics	-12
▁Paula	-12
▁appreciation	-12
▁Hancock	-12
▁Studios	-12
▁Swan	-12
▁seated	-12
▁surveys	-12
▁cheered	-12
▁interaction	-12
tte	-12
▁Brooke	-12
▁glowing	-12
▁nicely	-12
▁Aleppo	-12
pt	-12
▁absorb	-12
▁GPs	-12
▁sparkling	-12
▁Diet	-12
▁Cathedral	-12
▁clashed	-12
▁directions	-12
▁frontline	-12
▁Fellow	-12
▁costumes	-12
▁hospitalized	-12
▁Regional	-12
▁und	-12
▁curves	-12
▁propose	-12
▁1963	-12
▁sting	-12
▁distraction	-12
▁Quite	-12
▁Martha	-12
▁oral	-12
▁interpret	-12
▁litigation	-12
▁Focus	-12
▁contentious	-12
▁getaway	-12
▁borrowed	-12
▁cheeky	-12
▁Bang	-12
▁valuation	-12
▁pond	-12
▁750	-12
▁naming	-12
▁bilateral	-12
▁Hansen	-12
▁Oz	-12
▁Rush	-12
▁slap	-12
▁umbrella	-12
lit	-12
▁Chambers	-12
▁polite	-12
AD	-12
▁Napoli	-12
▁Strip	-12
▁Chapman	-12
▁cautioned	-12
▁subscription	-12
▁Stein	-12
▁Bruyne	-12
▁appreciated	-12
fish	-12
▁ego	-12
▁Families	-12
▁Starbucks	-12
▁Charlton	-12
▁cart	-12
nick	-12
▁promotional	-12
▁Ipswich	-12
100	-12
▁onstage	-12
▁playground	-12
act	-12
▁Connor	-12
pan	-12
▁vacuum	-12
▁gray	-12
▁unlawful	-12
▁Ethiopia	-12
▁premiums	-12
▁hills	-12
▁informal	-12
▁stoppage	-12
▁resumed	-12
▁stemm	-12
▁NYSE	-12
uch	-12
▁Penny	-12
rah	-12
ré	-12
▁woods	-12
▁evaluate	-12
▁elder	-12
▁hander	-12
▁swipe	-12
▁stalled	-12
▁cartel	-12
▁compliment	-12
▁clarify	-12
▁tycoon	-12
▁Giggs	-12
▁landlord	-12
▁urgently	-12
▁Zac	-12
▁travels	-12
▁Horse	-12
▁Tate	-12
▁stubborn	-12
▁songstress	-12
▁Mailonline	-12
▁chiefs	-12
▁negotiation	-12
▁dug	-12
▁wholesale	-12
▁drain	-12
.20	-12
▁networking	-12
een	-12
▁Toni	-12
▁Stockholm	-12
▁Molly	-12
▁breasts	-12
▁bikes	-12
RO	-12
▁timetable	-12
▁Fry	-12
29	-12
wy	-12
▁Rosa	-12
▁primaries	-12
▁Buffalo	-12
▁directing	-12
▁bully	-12
ET	-12
▁Ajax	-12
▁Autumn	-12
▁notified	-12
▁thread	-12
▁Etihad	-12
▁Section	-12
▁clinics	-12
▁distressed	-12
▁uphold	-12
▁hugging	-12
▁vegetable	-12
structed	-12
▁Ru	-12
▁upbeat	-12
0	-12
▁assumption	-12
▁annoying	-12
▁Chrissy	-12
horn	-12
▁Leading	-12
▁steering	-12
▁weekends	-12
els	-12
▁median	-12
ID	-12
▁outraged	-12
▁Verizon	-12
▁Brotherhood	-12
▁Yang	-12
dded	-12
▁colored	-12
▁Saunders	-12
▁smear	-12
▁miners	-12
▁Cardinal	-12
nier	-12
▁PAC	-12
ore	-12
▁Sturridge	-12
zu	-12
▁Maurici	-12
▁splitting	-12
▁offender	-12
▁Sur	-12
▁NY	-12
▁105	-12
▁Ghana	-12
▁legislature	-12
▁chorus	-12
▁slipping	-12
▁unpredictable	-12
▁Carlton	-12
▁0.4	-12
hroughout	-12
▁creditors	-12
▁cyclists	-12
▁2030	-12
▁flats	-12
▁Daisy	-12
▁tariff	-12
▁prosecuted	-12
▁selfish	-12
▁medications	-12
▁Bright	-12
▁intact	-12
▁chunk	-12
▁spells	-12
▁tendenc	-12
▁Kam	-12
▁Majesty	-12
▁glittering	-12
▁damn	-12
▁backstage	-12
▁Briton	-12
▁Gatwick	-12
▁Cahill	-12
01	-12
▁governors	-12
master	-12
ax	-12
▁definitive	-12
▁dilemma	-12
▁substances	-12
▁Form	-12
▁Rhodes	-12
▁LeBron	-12
▁Sandra	-12
▁laud	-12
▁thrill	-12
▁Pardew	-12
▁Wilshere	-12
▁encounters	-12
▁brawl	-12
▁breeding	-12
▁organizers	-12
▁Bros	-12
▁rein	-12
▁sidelined	-12
▁pouring	-12
▁ridden	-12
▁id	-12
▁Fine	-12
▁Hol	-12
▁staring	-12
▁Howe	-12
▁preced	-12
▁southeast	-12
▁reductions	-12
▁Wearing	-12
▁rainfall	-12
▁successes	-12
▁Hungarian	-12
▁Giuliani	-12
▁Damian	-12
▁Toby	-12
hen	-12
▁wellbeing	-12
▁Jacobs	-12
▁Joanna	-12
▁sinister	-12
▁Monetary	-12
▁Panama	-12
▁descent	-12
▁Boko	-12
▁Spicer	-12
▁motorcycle	-12
▁Chu	-12
ray	-12
▁evaluation	-12
▁bend	-12
▁partnerships	-12
▁Schmidt	-12
▁Nico	-12
cc	-12
▁Shin	-12
▁concentrated	-12
49	-12
▁Store	-12
▁stellar	-12
▁defiant	-12
▁loads	-12
ö	-12
▁Wo	-12
▁Summit	-12
▁themes	-12
lyn	-12
▁Ph	-12
▁confined	-12
▁Bri	-12
▁Mom	-12
lam	-12
▁VIDEO	-12
▁fried	-12
▁Cre	-12
IN	-12
▁topping	-12
▁thoughtful	-12
▁arrange	-12
▁questionable	-12
▁airstrikes	-12
▁posters	-12
▁Wu	-12
▁Paralympic	-12
pers	-12
▁Schwarzenegger	-12
▁AL	-12
▁regards	-12
ram	-12
▁renewal	-12
▁enforced	-12
saw	-12
▁advancing	-12
▁aggravate	-12
▁deceased	-12
▁subscribers	-12
▁sensors	-12
▁deux	-12
77	-12
puis	-12
boy	-12
▁Industrial	-12
▁McCartney	-12
▁horrified	-12
▁Tripoli	-12
▁noon	-12
▁Balls	-12
▁Marathon	-12
▁Lindsey	-12
▁maths	-12
met	-12
▁concede	-12
▁volatility	-12
▁Doyle	-12
▁languages	-12
▁shootout	-12
ole	-12
▁Gea	-12
▁Bag	-12
aya	-12
ius	-12
▁CNBC	-12
▁sexist	-12
▁Betty	-12
▁Dee	-12
▁fait	-12
▁positioned	-12
▁Alistair	-12
ela	-12
▁Mets	-12
ori	-12
pot	-12
mis	-12
▁Echo	-12
▁Maggie	-12
▁Sta	-12
▁associates	-12
▁brutality	-12
brook	-12
▁prizes	-12
▁Indianapolis	-12
▁inviting	-12
▁Wanderers	-12
▁coffin	-12
▁prediction	-12
▁alerted	-12
▁conclusions	-12
▁motorway	-12
▁Bloom	-12
▁bets	-12
▁altered	-12
▁abuses	-12
▁Sleep	-12
▁assumptions	-12
▁slash	-12
▁precision	-12
▁leggings	-12
▁Motors	-12
▁effortless	-12
▁catastrophe	-12
▁lanes	-12
▁Gal	-12
▁solicitor	-12
▁Shannon	-12
▁norm	-12
▁cluster	-12
▁motive	-12
▁Colonel	-12
▁undermined	-12
▁Christina	-12
▁tick	-12
▁siege	-12
▁hyper	-12
▁Somali	-12
▁vet	-12
▁territories	-12
ele	-12
▁Murder	-12
▁departed	-12
▁insurgency	-12
▁interrupted	-12
▁Finals	-12
▁lowered	-12
mat	-12
▁deprived	-12
▁HS	-12
▁connecting	-12
▁pupil	-12
▁Springs	-12
▁enters	-12
tis	-12
▁Kenyan	-12
▁exchanged	-12
▁Independence	-12
▁diplomacy	-12
▁Tillerson	-12
▁backyard	-12
▁0.6	-12
▁plight	-12
▁claw	-12
▁breached	-12
▁Rees	-12
38	-12
▁junk	-12
▁mindset	-12
▁Mun	-12
▁stylist	-12
▁Dani	-12
▁BJP	-12
▁sour	-12
▁unsure	-12
▁bug	-12
▁Fan	-12
▁Chester	-12
▁aggregate	-12
▁shallow	-12
▁Kidman	-12
▁Wing	-12
▁signings	-12
▁raft	-12
▁pasta	-12
▁reconsider	-12
▁Comedy	-12
▁doll	-12
▁lazy	-12
▁Billboard	-12
▁permits	-12
▁pity	-12
▁Berlusconi	-12
▁Question	-12
▁leaks	-12
79	-12
kar	-12
▁disabilities	-12
▁Jenna	-12
▁ballet	-12
▁savage	-12
▁honesty	-12
▁Says	-12
26	-12
▁IPO	-12
▁usher	-12
▁Hardy	-12
eri	-12
▁Au	-12
▁flour	-12
▁Lower	-12
▁weaken	-12
▁outbreaks	-12
kel	-12
for	-12
cia	-12
▁Simone	-12
▁insane	-12
▁prohibited	-12
▁Magistrates	-12
▁litre	-12
lung	-12
▁resisted	-12
▁Jonas	-12
▁Mini	-12
▁gatherings	-12
maker	-12
▁beats	-12
▁Ella	-12
▁rooted	-12
▁sterling	-12
▁couch	-12
AS	-12
▁HD	-12
▁useless	-12
▁Rest	-12
▁Cola	-12
tar	-12
mel	-12
▁Kha	-12
▁expos	-12
▁pools	-12
▁Canterbury	-12
▁irrelevant	-12
▁modified	-12
▁Soccer	-12
▁Geoff	-12
▁depressing	-12
▁neo	-12
▁constructed	-12
▁Clive	-12
▁Colombian	-12
▁pins	-12
▁chin	-12
▁Cardinals	-12
▁squeezed	-12
▁Bus	-12
▁circus	-12
▁forehand	-12
▁racy	-12
▁blogger	-12
36	-12
ack	-12
▁Katherine	-12
▁smuggling	-12
▁stray	-12
▁Ski	-12
mont	-12
39	-12
▁filmmaker	-12
▁Kardashians	-12
▁enlist	-12
▁presenters	-12
▁domain	-12
▁outdoors	-12
▁Zo	-12
▁Luiz	-12
▁backup	-12
▁strapped	-12
▁Mack	-12
▁80,000	-12
▁Whil	-12
bit	-12
ico	-12
▁respects	-12
▁duration	-12
▁collections	-12
▁scrapp	-12
▁Kil	-12
▁Worth	-12
▁Tribune	-12
▁Callum	-12
▁polar	-12
▁Griezmann	-12
▁lorry	-12
▁Coronation	-12
▁Elvis	-12
▁Thankful	-12
ain	-12
DA	-12
▁finalists	-12
▁drap	-12
▁Ronnie	-12
▁Batman	-12
▁Robson	-12
ku	-12
▁speeding	-12
▁Movement	-12
▁axe	-12
▁tales	-12
▁complexion	-12
▁engulf	-12
▁WhatsApp	-12
des	-12
EL	-12
▁Tal	-12
▁Daniels	-12
▁Gonzalez	-12
▁woo	-12
▁gentleman	-12
▁Supporters	-12
▁ounce	-12
▁compensate	-12
▁70,000	-12
▁Tru	-12
▁notch	-12
lle	-12
FC	-12
▁DVD	-12
▁Lead	-12
▁consult	-12
▁employs	-12
▁1945	-12
▁Customers	-12
▁resting	-12
▁repairs	-12
down	-12
some	-12
▁swimmer	-12
▁Jamaican	-12
▁Tra	-12
▁Op	-12
▁Lynn	-12
▁incoming	-12
▁abs	-12
▁DUP	-12
▁southwest	-12
▁600,000	-12
▁projections	-12
▁Luxembourg	-12
▁esteem	-12
▁plotting	-12
▁Cavaliers	-12
▁soar	-12
▁Zi	-12
▁lawmaker	-12
▁Garner	-12
▁Englishman	-12
▁creature	-12
▁Donna	-12
▁spouse	-12
▁distinguished	-12
▁collaborate	-12
▁Ste	-12
▁Porto	-12
▁Strong	-12
anna	-12
▁Writer	-12
hy	-12
▁sinking	-12
enko	-12
▁nationals	-12
▁independently	-12
▁admissions	-12
▁Single	-12
▁Studio	-12
▁Imperial	-12
▁granddaughter	-12
▁Fifty	-12
▁flows	-12
ched	-12
▁strictly	-12
.5	-12
▁Stenson	-12
shift	-12
▁Interest	-12
▁retro	-12
zen	-12
▁forgot	-12
▁nutrition	-12
▁scattered	-12
▁forests	-12
▁spinning	-12
▁candid	-12
▁Isaac	-12
▁tenth	-12
▁correction	-12
▁Cy	-12
89	-12
▁dodge	-12
▁determin	-12
▁Morocco	-12
▁Wellington	-12
▁Hartley	-12
▁Daly	-12
▁propell	-12
▁crushing	-12
▁leagues	-12
1,000	-12
▁Styles	-12
▁imprisoned	-12
▁Mak	-12
▁outer	-12
▁Audi	-12
▁FM	-12
▁Resort	-12
▁halftime	-12
▁packing	-12
▁Kazakhstan	-12
▁soaked	-12
▁Standing	-12
▁unfairly	-12
▁currencies	-12
▁wool	-12
▁Comment	-12
▁Volkswagen	-12
▁insufficient	-12
▁candidacy	-12
▁sank	-12
▁hopeless	-12
▁Bellew	-12
▁batter	-12
▁exclude	-12
▁unsuccessful	-12
▁Frankie	-12
▁bent	-12
▁Kemp	-12
▁nonetheless	-12
▁Rd	-12
▁diary	-12
▁Utd	-12
▁https	-12
aba	-12
▁Savile	-12
▁recycling	-12
TH	-12
▁NI	-12
▁Gross	-12
▁GPS	-12
▁Dana	-12
▁Francois	-12
▁Slater	-12
BA	-12
▁void	-12
▁poem	-12
▁Woodward	-12
▁Forward	-12
▁incorrect	-12
▁tolerate	-12
▁darling	-12
▁Fortunate	-12
▁emphatic	-12
▁maps	-12
▁Miles	-12
▁Kin	-12
OC	-12
▁Sophia	-12
▁unpleasant	-12
▁Primary	-12
▁Fifa	-12
▁Nat	-12
▁Willis	-12
48	-12
AR	-12
▁timeline	-12
▁Know	-12
wr	-12
▁console	-12
▁recordings	-12
▁respiratory	-12
ep	-12
▁Cher	-12
bri	-12
▁Lara	-12
ction	-12
▁colonial	-12
▁leaf	-12
▁Breakfast	-12
▁storey	-12
▁bankrupt	-12
▁Doncaster	-12
measuring	-12
law	-12
▁varied	-12
▁Downton	-12
▁deter	-12
▁Laurent	-12
▁organis	-12
aro	-12
▁licensed	-12
▁Pol	-12
▁psychiatric	-12
▁Sia	-12
▁dash	-12
uc	-12
▁characteristics	-12
ets	-12
▁novelist	-12
▁Fourth	-12
▁caucus	-12
▁homicide	-12
▁maiden	-12
▁Giroud	-12
qu	-12
▁spoil	-12
▁Whit	-12
list	-12
▁DIY	-12
▁guru	-12
▁AS	-12
▁stressful	-12
tta	-12
▁madness	-12
▁eco	-12
▁hence	-12
▁arrivals	-12
67	-12
▁magazines	-12
▁bloke	-12
▁garment	-12
▁promptly	-12
▁Harbour	-12
▁Rise	-12
▁insiders	-12
▁liberty	-12
▁biography	-12
▁Legend	-12
▁thumb	-12
▁sprinter	-12
▁twitter	-12
té	-12
▁grassroots	-12
▁maternity	-12
▁terribly	-12
▁Fer	-12
▁Sab	-12
▁Cro	-12
▁cheers	-12
vic	-12
▁ni	-12
▁surrogate	-12
▁Technologies	-12
▁rebellion	-12
▁Martial	-12
▁obstacles	-12
▁pleading	-12
▁commuters	-12
▁Ok	-12
▁Laurie	-12
▁Raj	-12
▁recipients	-12
▁Israelis	-12
▁essence	-12
▁invisible	-12
▁settling	-12
mit	-12
▁VIP	-12
66	-12
▁bored	-12
▁Oak	-12
▁asteroid	-12
ious	-12
▁rebuilding	-12
▁disguise	-12
mins	-12
▁problematic	-12
▁Said	-12
▁sitcom	-12
▁settings	-12
▁Chamber	-12
▁Solar	-12
▁unidentifi	-12
▁fraudulent	-12
▁Gardner	-12
▁heir	-12
▁SpaceX	-12
▁administered	-12
▁3.2	-12
▁playmaker	-12
▁quiz	-12
▁Jerome	-12
sta	-12
▁preserved	-12
▁potato	-12
▁sniff	-12
▁Medal	-12
▁Row	-12
▁aging	-12
▁instinct	-12
▁Ring	-12
▁UC	-12
▁sounding	-12
▁Sacramento	-12
▁variable	-12
▁irresponsible	-12
▁Branson	-12
▁breaches	-12
▁offside	-12
▁rash	-12
ante	-12
▁tastes	-12
▁outskirts	-12
▁Dozens	-12
shot	-12
▁Otherwise	-12
och	-12
▁constructive	-12
▁pat	-12
▁Lawson	-12
▁assaults	-12
▁poison	-12
▁Harold	-12
▁Inn	-12
▁Bran	-12
▁Roll	-12
rn	-12
▁clerk	-12
▁doorstep	-12
▁smoked	-12
ast	-12
▁Growth	-12
vy	-12
▁Dunn	-12
▁Millions	-12
▁burial	-12
▁SS	-12
▁Rebel	-12
▁males	-12
▁disasters	-12
iling	-12
wash	-12
▁bypass	-12
RI	-12
▁composer	-12
▁Rand	-12
▁observe	-12
RC	-12
▁backhand	-12
▁educate	-12
▁discounts	-12
▁Cheshire	-12
▁Were	-12
isi	-12
bert	-12
▁tumour	-12
▁microphone	-12
▁digit	-12
▁Really	-12
▁towel	-12
▁grounded	-12
▁usage	-12
▁constituents	-12
▁ch	-12
▁lightweight	-12
▁bundle	-12
▁Cu	-12
▁alcoholic	-12
▁crises	-12
AC	-12
▁Barton	-12
▁blessing	-12
▁clues	-12
play	-12
▁gratitude	-12
▁Eat	-12
▁playful	-12
▁tumble	-12
▁Fight	-12
▁Won	-12
▁pitcher	-12
▁advising	-12
▁medieval	-12
▁niece	-12
▁bush	-12
yo	-12
▁Shield	-12
▁demographic	-12
▁speculate	-12
è	-12
▁Stage	-12
AT	-12
▁councillor	-12
▁deaf	-12
▁Corey	-12
▁Ac	-12
▁enrich	-12
▁Conway	-12
▁accurately	-12
44	-12
ema	-12
▁coupled	-12
▁Stacey	-12
▁plaintiff	-12
▁©	-12
▁Barnsley	-12
▁dismal	-12
▁Discovery	-12
▁angered	-12
▁underscore	-12
▁Ulster	-12
▁fiery	-12
▁cropped	-12
▁gala	-12
▁Vicky	-12
▁dipp	-12
▁Zach	-12
▁Var	-12
▁Bangkok	-12
▁upstairs	-12
▁ro	-12
▁stab	-12
▁Basic	-12
▁Com	-12
lic	-12
▁contests	-12
▁Elton	-12
itis	-12
▁indoors	-12
▁lively	-12
▁bridges	-12
▁boundary	-12
▁Gr	-12
▁strikers	-12
▁Lamb	-12
▁Forget	-12
▁Damon	-12
▁Chair	-12
▁cheque	-12
▁golfer	-12
▁descended	-12
32	-12
▁rockets	-12
▁commanders	-12
▁mechanical	-12
▁Hewitt	-12
▁Anglo	-12
▁antics	-12
▁kissed	-12
▁tilt	-12
▁Sochi	-12
▁uranium	-12
▁Pablo	-12
▁statistical	-12
▁AJ	-12
▁Corden	-12
mor	-12
▁tortured	-12
▁Stade	-12
▁Amnesty	-12
▁terrain	-12
▁vanished	-12
▁chefs	-12
▁fulfil	-12
▁Student	-12
▁fuels	-12
ath	-12
▁federation	-12
stricken	-12
ère	-12
▁Jar	-12
▁battlefield	-12
▁AA	-12
▁disregard	-12
▁mould	-12
▁betrayal	-12
▁buck	-12
▁ses	-12
▁defeating	-12
▁Mbappe	-12
▁Bromwich	-12
bal	-12
▁Risk	-12
wo	-12
▁Goodman	-12
▁underwater	-12
▁ritual	-12
▁diminish	-12
34	-12
▁altitude	-12
▁stretches	-12
▁understandably	-12
▁bowlers	-12
▁reliance	-12
▁Hood	-12
dal	-12
▁offerings	-12
▁Turn	-12
▁slated	-12
▁clearer	-12
▁SAN	-12
atory	-12
▁landslide	-12
▁rivers	-12
▁Bro	-12
▁ceasefire	-12
▁rogue	-12
▁Koeman	-12
▁warfare	-12
▁detection	-12
What	-12
▁Majority	-12
▁swear	-12
▁wipe	-12
▁condolences	-12
▁DiCaprio	-12
▁tabloid	-12
▁Jun	-12
59	-12
▁complexity	-12
▁rub	-12
▁convoy	-12
▁theatrical	-12
juring	-12
▁gauge	-12
▁quotes	-12
▁grades	-12
▁slew	-12
▁distribute	-12
▁Talking	-12
▁Crosby	-12
▁hints	-12
▁Wendy	-12
▁3.6	-12
▁mais	-12
▁ports	-12
▁actresses	-12
▁wines	-12
▁protested	-12
▁Bears	-12
▁suing	-12
▁TD	-12
▁styles	-12
eva	-12
▁inflammation	-12
▁Burgess	-12
qua	-12
▁academics	-12
▁Bab	-12
▁lecture	-12
ait	-12
▁shutt	-12
▁Demi	-12
▁Jazz	-12
▁liquidity	-12
▁pledges	-12
▁math	-12
ew	-12
PS	-12
▁Province	-12
▁restoration	-12
▁nanny	-12
▁Jagger	-12
33	-12
▁pout	-12
▁spree	-12
▁tightly	-12
▁rode	-12
▁Holden	-12
▁Mane	-12
▁kindness	-12
iff	-12
▁compris	-12
▁thriving	-12
▁contaminated	-12
▁painter	-12
▁Bitcoin	-12
▁Saracens	-12
▁dumb	-12
▁rope	-12
▁Mile	-12
mu	-12
▁codes	-12
▁keys	-12
▁interactive	-12
▁elimination	-12
▁Train	-12
▁recount	-12
▁stimulate	-12
▁Arabic	-12
▁Para	-12
▁Qui	-12
sley	-12
▁prolific	-12
▁burnt	-12
▁wreck	-12
▁Books	-12
▁cloth	-12
▁Levy	-12
▁stain	-12
▁inspectors	-12
▁shortfall	-12
▁alleg	-12
▁peninsula	-12
▁Renault	-12
▁Jinping	-12
▁trades	-12
▁Rs	-12
▁wishing	-12
▁Upon	-12
▁exceeded	-12
▁pic	-12
▁temple	-12
▁Above	-12
▁Cards	-12
▁Pension	-12
▁laden	-12
▁VA	-12
▁1965	-12
▁Kick	-12
▁cameo	-12
▁mu	-12
bach	-12
▁Lewandowski	-12
▁orchestra	-12
▁observations	-12
▁dragging	-12
cut	-12
▁sperm	-12
▁crosses	-12
▁payroll	-12
▁inflict	-12
▁advantages	-12
▁Clear	-12
▁Rising	-12
▁morale	-12
▁Cool	-12
▁powerhouse	-12
▁Raheem	-12
▁Ellie	-12
▁fractured	-12
▁Kra	-12
▁Hamburg	-12
▁Hyde	-12
▁Shirley	-12
▁Annie	-12
▁eu	-12
CO	-12
▁Plant	-12
▁protocols	-12
▁Poll	-12
odd	-12
▁Gene	-12
▁Uganda	-12
▁Crimea	-12
▁Maj	-12
▁flaws	-12
nn	-12
▁cooler	-12
▁upgraded	-12
▁Expect	-12
▁excellence	-12
▁jewelry	-12
▁visas	-12
▁settlements	-12
phone	-12
▁Nebraska	-12
▁Vodafone	-12
▁admiration	-12
▁savvy	-12
▁sacred	-12
▁cottage	-12
cul	-12
▁ministerial	-12
lessness	-12
▁damning	-12
▁Nicky	-12
▁Vol	-12
▁compares	-12
▁blatant	-12
▁Jorge	-12
▁bicycle	-12
▁warmth	-12
▁cons	-12
▁touted	-12
▁Gucci	-12
▁strive	-12
▁distinguish	-12
▁Bee	-12
▁Teen	-12
pre	-12
▁Baseball	-12
▁Move	-12
▁satisfy	-12
▁strengths	-12
▁Rolls	-12
▁Gate	-12
▁Seth	-12
▁curriculum	-12
▁demise	-12
▁ST	-12
▁backpack	-12
▁applaud	-12
69	-12
hand	-12
▁contend	-12
▁Bart	-12
▁hid	-12
▁certified	-12
▁grin	-12
▁jurisdiction	-12
▁Xbox	-12
ech	-12
▁ICC	-12
▁pickup	-12
lio	-12
▁Santiago	-12
▁idol	-12
▁champ	-12
▁RE	-12
▁Mah	-12
▁jealous	-12
▁Southeast	-12
▁arrogant	-12
▁freshman	-12
▁Bulls	-12
▁justification	-12
▁Million	-12
▁Prices	-12
▁discharged	-12
▁Hy	-12
▁compulsory	-12
▁cancellation	-12
▁strained	-12
▁tackled	-12
▁spared	-12
▁Electoral	-12
▁organise	-12
▁va	-12
▁edges	-12
28	-12
▁lawn	-12
▁Collingwood	-12
▁imprisonment	-12
▁accessoris	-12
▁Sudden	-12
▁forgiven	-12
▁Date	-12
▁reigning	-12
▁Fifth	-12
▁unlimited	-12
▁composition	-12
▁shapes	-12
uma	-12
▁felony	-12
▁refreshing	-12
▁stump	-12
▁Brentford	-12
▁hype	-12
▁advertised	-12
▁genocide	-12
▁après	-12
rich	-12
▁rat	-12
▁Kashmir	-12
▁Ibrahim	-12
▁urine	-12
▁Booker	-12
spiring	-12
▁tighten	-12
▁sacking	-12
▁Jeb	-12
eg	-12
▁Cyber	-12
▁Lucki	-12
▁Patricia	-12
▁shoots	-12
▁Crisis	-12
cap	-12
▁shipped	-12
▁sensitivity	-12
tti	-12
▁whisper	-12
ator	-12
▁lately	-12
▁server	-12
▁booming	-12
▁habitat	-12
▁pigs	-12
osa	-12
▁embroil	-12
▁brigade	-12
▁retaliation	-12
▁Nassar	-12
▁unsafe	-12
▁lingerie	-12
▁Healthcare	-12
▁Protesters	-12
▁Royce	-12
▁MMA	-12
▁Irishman	-12
▁Dele	-12
standing	-12
▁humor	-12
▁pots	-12
▁Niall	-12
▁beast	-12
▁presid	-12
ui	-12
▁concludes	-12
▁z	-12
▁tightening	-12
▁Anonymous	-12
▁tapped	-12
▁Keys	-12
▁faded	-12
▁sibling	-12
▁Anton	-12
ä	-12
uf	-12
▁acquisitions	-12
▁calculate	-12
▁bathrooms	-12
▁Lawyers	-12
▁Kosovo	-12
▁shores	-12
▁pairing	-12
▁origins	-12
▁hooked	-12
▁Wow	-12
▁Frankfurt	-12
▁humiliation	-12
▁220	-12
▁Foods	-12
▁Lam	-12
▁Sale	-12
▁tiger	-12
nder	-12
ians	-12
▁Hotspur	-12
▁Karzai	-12
▁Pearce	-12
▁Holder	-12
▁attire	-12
▁perfection	-12
▁Tomlinson	-12
▁bacon	-12
▁surgeries	-12
▁rotation	-12
itt	-12
▁Mia	-12
05	-12
▁commodities	-12
▁upheld	-12
▁filter	-12
▁Pietersen	-12
▁portrayal	-12
▁punching	-12
▁Malibu	-12
▁Cloud	-12
ough	-12
▁upwards	-12
▁tout	-12
▁bum	-12
▁killers	-12
▁dwarf	-12
▁identities	-12
▁blush	-12
▁Globes	-12
▁fearful	-12
▁Chang	-12
▁drum	-12
▁Buck	-12
▁offspring	-12
lay	-12
▁shrinking	-12
▁paramedics	-12
▁mixing	-12
▁occurr	-12
▁heartbroken	-12
▁honeymoon	-12
▁compact	-12
▁personalities	-12
▁Ran	-12
▁republic	-12
▁partying	-12
▁Wilkinson	-12
▁stall	-12
▁cooling	-12
▁satisfying	-12
▁tattoos	-12
▁raided	-12
▁Tomas	-12
▁Albania	-12
▁unlock	-12
▁ligament	-12
▁Santander	-12
nk	-12
▁presidents	-12
wer	-12
▁Hours	-12
▁nap	-12
▁coached	-12
▁logical	-12
▁vows	-12
▁reap	-12
▁Quarter	-12
▁Ariana	-12
▁Mari	-12
▁flirt	-12
▁Alicia	-12
▁flagged	-12
▁neat	-12
▁summ	-12
▁footy	-12
▁salon	-12
eta	-12
▁Copenhagen	-12
▁horrendous	-12
▁yuan	-12
▁piled	-12
▁Triple	-12
▁slams	-12
▁reminiscen	-12
80	-12
▁Jefferson	-12
▁Jet	-12
▁isolate	-12
▁sorted	-12
▁Ag	-12
▁servant	-12
▁fundraiser	-12
▁Into	-12
▁Beyoncé	-12
▁towering	-12
▁darker	-12
▁heights	-12
▁administrator	-12
ute	-12
▁bass	-12
▁fertility	-12
▁pastor	-12
▁wi	-12
▁staffers	-12
▁persist	-12
right	-12
▁pulls	-12
illo	-12
▁chanting	-12
▁severity	-12
▁strokes	-12
▁scarf	-12
ture	-12
▁punches	-12
▁flourish	-12
▁Luc	-12
▁Hat	-12
▁declines	-12
▁corridor	-12
▁Name	-12
▁Jam	-12
▁Hargreaves	-12
▁skimp	-12
▁Dor	-12
▁scenarios	-12
▁Kai	-12
▁gallon	-12
▁Figures	-12
▁rents	-12
▁WikiLeaks	-12
▁ponytail	-12
▁Idaho	-12
▁singled	-12
▁publishers	-12
▁earners	-12
stead	-12
▁Berkeley	-12
▁frenzy	-12
▁quitting	-12
▁manual	-12
▁Tracy	-12
▁slaughter	-12
nik	-12
▁Devils	-12
56	-12
▁startling	-12
▁pundits	-12
▁conceal	-12
▁Beautiful	-12
▁escalating	-12
▁feast	-12
▁Javier	-12
▁Patients	-12
Source	-12
▁advocat	-12
▁scar	-12
▁clan	-12
▁hardship	-12
▁inspirational	-12
31	-12
▁Especial	-12
▁Columbus	-12
▁headache	-12
▁ut	-12
▁printing	-12
▁Moor	-12
▁committees	-12
una	-12
▁energetic	-12
▁psychology	-12
▁wheat	-12
▁cruelty	-12
▁VI	-12
▁exploited	-12
▁Dogs	-12
▁Ritchie	-12
▁MO	-12
▁Quick	-12
var	-12
▁Byrne	-12
▁interactions	-12
▁metro	-12
▁sliding	-12
▁enviabl	-12
▁Kumar	-12
▁planets	-12
▁sculpture	-12
▁brass	-12
▁JPMorgan	-12
▁baggage	-12
▁licensing	-12
▁Baroness	-12
▁contre	-12
▁Except	-12
▁metallic	-12
▁pardon	-12
▁offended	-12
▁wasting	-12
▁MH	-12
▁Geelong	-12
▁Sep	-12
▁candy	-12
▁Ser	-12
▁recipient	-12
▁Janeiro	-12
▁Hawks	-12
▁portraits	-12
jan	-12
▁sanctuary	-12
itz	-12
▁CBD	-12
▁1962	-12
▁Sharks	-12
star	-12
▁Abramovich	-12
▁Wuhan	-12
▁Spirit	-12
▁Bentley	-12
▁SE	-12
▁predicts	-12
▁allied	-12
▁3.3	-12
▁viruses	-12
▁casually	-12
▁Statement	-12
▁administrators	-12
▁allege	-12
▁umpire	-12
▁legg	-12
▁mortar	-12
▁instruction	-12
▁whales	-12
▁bod	-12
▁influx	-12
▁velvet	-12
▁Havana	-12
▁paths	-12
▁Trail	-12
▁watering	-12
▁Nina	-12
▁Partnership	-12
▁tracker	-12
▁comparisons	-12
CH	-12
▁dial	-12
▁shameful	-12
▁diminished	-12
▁Patrol	-12
tur	-12
▁Fur	-12
▁stirring	-12
▁postseason	-12
▁boutique	-12
▁Gan	-12
▁overseeing	-12
▁leaking	-12
rant	-12
▁averaging	-12
▁Oxlade	-12
65	-12
▁rethink	-12
▁renovation	-12
▁Morata	-12
.40	-12
▁rays	-12
▁eccentric	-12
▁jett	-12
▁suck	-12
▁Joey	-12
▁colors	-12
▁Ballon	-12
án	-12
37	-12
▁attendees	-12
▁marriages	-12
▁tighter	-12
▁commute	-12
▁agony	-12
▁flurry	-12
▁volcano	-12
lla	-12
ory	-12
▁mat	-12
▁stern	-12
▁Cherry	-12
▁Male	-12
▁heroic	-12
▁behaved	-12
▁swinging	-12
▁grammar	-12
▁solved	-12
▁passive	-12
▁coma	-12
rr	-12
▁roast	-12
sse	-12
▁rested	-12
▁Intel	-12
▁Hero	-12
▁Hawkins	-12
▁Peterson	-12
▁HQ	-12
▁fiancee	-12
▁SC	-12
▁deer	-12
▁Archer	-12
▁Manafort	-12
making	-12
▁Whitney	-12
▁ingredient	-12
▁ICE	-12
▁vi	-12
▁Cubs	-12
▁surprises	-12
▁Seahawks	-12
yard	-12
▁royals	-12
▁manifest	-12
▁Range	-12
▁negotiator	-12
76	-12
rian	-12
▁Sto	-12
▁loudly	-12
▁swimsuit	-12
▁shining	-12
▁manufacture	-12
uz	-12
▁anticipation	-12
▁instrumental	-12
▁detached	-12
▁inflammatory	-12
▁UBS	-12
▁Collection	-12
▁Steele	-12
▁Griffiths	-12
▁Henrik	-12
▁masterpiece	-12
▁Ridge	-12
gal	-12
▁135	-12
mpending	-12
▁lodged	-12
▁mourning	-12
▁Berg	-12
▁Keegan	-12
▁rubble	-12
▁counselling	-12
▁Titans	-12
▁expire	-12
▁readily	-12
▁104	-12
▁deported	-12
▁Leone	-12
▁reboot	-12
▁acquitted	-12
▁Ry	-12
▁empathy	-12
▁Ligue	-12
▁GE	-12
ean	-12
▁applauded	-12
core	-12
▁Lorraine	-12
▁cemetery	-12
▁Raymond	-12
▁Seventies	-12
▁defect	-12
▁Blade	-12
stock	-12
▁aspirations	-12
mes	-12
▁keyboard	-12
▁th	-12
▁shelters	-12
▁scent	-12
▁Style	-12
▁elephants	-12
▁Cats	-12
▁Millwall	-12
▁failings	-12
▁McCann	-12
▁JP	-12
▁uniforms	-12
▁Noble	-12
▁coconut	-12
▁pint	-12
berry	-12
▁replica	-12
88	-12
▁HKT	-12
▁stride	-12
▁plagu	-12
▁combin	-12
▁insights	-12
▁Ontario	-12
▁humiliating	-12
▁judiciary	-12
▁baked	-12
▁Alberto	-12
▁Prosecutor	-12
▁hikes	-12
tten	-12
▁Pirates	-12
▁HM	-12
▁drastic	-12
▁Eminem	-12
▁sigh	-12
▁Imp	-12
▁Abdel	-12
09	-12
▁Female	-12
▁Plymouth	-12
▁Ranieri	-12
▁Scroll	-12
▁naive	-12
Felipe	-12
▁Stephens	-12
▁allocat	-12
onic	-12
bre	-12
▁decree	-12
▁Alexa	-12
▁Photos	-12
▁armour	-12
▁lifts	-12
▁Meyer	-12
▁calorie	-12
▁Investigation	-12
▁emoji	-12
▁fibre	-12
78	-12
▁induced	-12
▁satellites	-12
▁juvenile	-12
▁container	-12
▁103	-12
▁coral	-12
▁devil	-12
▁Select	-12
▁cheerful	-12
▁bargaining	-12
▁emerges	-12
lier	-12
▁assisting	-12
▁entities	-12
▁accelerated	-12
▁Eighties	-12
▁dam	-12
▁undertaken	-12
▁sanction	-12
▁curfew	-12
▁Anything	-12
▁teas	-12
▁entertain	-12
▁Bed	-12
▁appropriately	-12
▁scream	-12
▁Walt	-12
▁Relief	-12
▁Paterson	-12
▁plough	-12
▁Fabio	-12
▁equities	-12
▁locate	-12
▁Thirty	-12
▁Anyway	-12
▁operative	-12
ern	-12
▁Jupiter	-12
▁physics	-12
▁DNC	-12
▁Runner	-12
aq	-12
▁ac	-12
▁punk	-12
▁Results	-12
gone	-12
▁ludicrous	-12
▁rendition	-12
ister	-12
▁lord	-12
▁Nadia	-12
ple	-12
▁Type	-12
▁gel	-12
▁repeating	-12
▁Alfred	-12
▁Agriculture	-12
▁solitary	-12
▁consultancy	-12
▁marble	-12
▁Malta	-12
▁frightened	-12
▁adopting	-12
▁fade	-12
▁Elliot	-12
aries	-12
▁hydrogen	-12
▁evolve	-12
,600	-12
▁reservations	-12
▁11,000	-12
▁poignant	-12
▁Hockey	-12
▁SO	-12
▁NSA	-12
▁supplements	-12
▁colorful	-12
▁gin	-12
▁Harriet	-12
▁Suffolk	-12
▁conspir	-12
▁Vi	-12
▁Commander	-12
▁0.8	-12
▁shortlist	-12
▁sharks	-12
cer	-12
▁magnetic	-12
▁Ecuador	-12
▁freedoms	-12
▁knives	-12
▁residency	-12
58	-12
▁3.4	-12
▁replicate	-12
▁pathetic	-12
▁prosecute	-12
▁Jubilee	-12
▁Knicks	-12
▁fork	-12
▁hurdle	-12
▁manufactured	-12
▁Harman	-12
nch	-12
▁burger	-12
▁entre	-12
▁Sign	-12
▁lodge	-12
▁35,000	-12
▁9,000	-12
▁grabs	-12
▁Belle	-12
▁wax	-12
▁CS	-12
▁oversized	-12
▁accomplish	-12
▁busies	-12
▁tram	-12
▁foundations	-12
▁entries	-12
▁reassuring	-12
▁unlucky	-12
▁garbage	-12
▁TIME	-12
▁soundtrack	-12
▁voluntarily	-12
▁inject	-12
▁Rosie	-12
▁circulation	-12
▁hostages	-12
▁dogged	-12
▁boil	-12
▁intentionally	-12
▁upward	-12
▁dim	-12
▁Ancelotti	-12
▁heartfelt	-12
▁breathtaking	-12
▁3.7	-12
nor	-12
▁disciplined	-12
▁construct	-12
▁singers	-12
▁homework	-12
ydd	-12
▁explored	-12
▁rag	-12
▁waking	-12
▁captur	-12
▁caravan	-12
ա	-12
▁execute	-12
▁pleasing	-12
▁Kingston	-12
▁Dragons	-12
▁tomatoes	-12
▁standoff	-12
▁Londoners	-12
▁pumps	-12
▁Notre	-12
▁autobiography	-12
▁Generation	-12
▁mouse	-12
form	-12
▁specially	-12
▁commanding	-12
▁102	-12
▁insulting	-12
▁intricate	-12
▁muscular	-12
▁vulnerability	-12
▁cherry	-12
▁associations	-12
▁Cell	-12
▁downward	-12
▁Loch	-12
CC	-12
▁monitors	-12
▁Stu	-12
▁1920	-12
▁delightful	-12
▁mastermind	-12
▁platinum	-12
▁expired	-12
▁flush	-12
▁bolt	-12
63	-12
▁cosmetic	-12
▁eliminat	-12
▁resilient	-12
▁corresponding	-12
▁240	-12
▁Mai	-12
▁Fun	-12
▁rocky	-12
▁recruits	-12
▁objections	-12
▁Address	-12
▁digging	-12
▁batch	-12
▁jobless	-12
▁1961	-12
▁ringing	-12
▁Saddam	-12
▁taunt	-12
▁Faith	-12
▁Mercury	-12
▁Zimmerman	-12
▁starters	-12
▁pavement	-12
▁vacant	-12
▁chap	-12
▁Kid	-12
▁Honor	-12
▁Georgian	-12
▁Pine	-12
▁procession	-12
pur	-12
▁Senegal	-12
▁malicious	-12
▁wrestling	-12
▁tribe	-12
▁addicted	-12
▁parental	-12
▁Hanson	-12
ao	-12
ska	-12
eo	-12
▁Details	-12
▁doubling	-12
▁Mir	-12
▁appalled	-12
tive	-12
▁Standards	-12
▁Mahmoud	-12
▁Porsche	-12
▁ATP	-12
▁accidental	-12
▁Gang	-12
gra	-12
▁conditioning	-12
▁Ibrox	-12
▁faux	-12
▁smashing	-12
▁pointless	-12
▁embedd	-12
▁explosions	-12
▁speculat	-12
▁surf	-12
▁filings	-12
▁Clay	-12
▁Warburton	-12
▁investigative	-12
▁drank	-12
▁sexism	-12
▁downside	-12
ila	-12
▁bottoms	-12
▁Southwest	-12
▁fulfill	-12
▁Chapo	-12
▁mosquito	-12
▁disgraceful	-12
▁fend	-12
▁nous	-12
▁Socialist	-12
▁Ankara	-12
▁mar	-12
▁indefinitely	-12
▁halls	-12
▁Angus	-12
▁frank	-12
▁merchandise	-12
▁loo	-12
▁NYTimes	-12
▁exercising	-12
▁Pla	-12
▁lecturer	-12
▁sunset	-12
▁Rwanda	-12
▁Cambodia	-12
▁Weir	-12
▁sickness	-12
py	-12
▁Wedding	-12
▁Natasha	-12
▁Geoffrey	-12
▁dictatorship	-12
▁inheritance	-12
▁Usual	-12
▁objectives	-12
▁witch	-12
▁Gerald	-12
▁Aside	-12
isa	-12
▁slumped	-12
▁TOWIE	-12
▁trolls	-12
▁herald	-12
▁Allison	-12
▁Quote	-12
DS	-12
▁mighty	-12
▁congratulate	-12
▁Listen	-12
▁Solutions	-12
▁succumb	-12
▁restoring	-12
▁catalogue	-12
▁Enterprise	-12
▁chatt	-12
▁consulted	-12
▁Sonny	-12
▁nails	-12
85	-12
▁injected	-12
▁Comic	-12
▁Atkinson	-12
▁murderer	-12
▁Pearl	-12
eu	-12
▁vile	-12
▁Foot	-12
▁monarchy	-12
▁Archbishop	-12
▁exclusion	-12
▁reconstruction	-12
▁quipped	-12
▁Knights	-12
▁goodwill	-12
bed	-12
▁imp	-12
lot	-12
DC	-12
nic	-12
▁peek	-12
▁snack	-12
▁Hair	-12
▁jo	-12
▁2.9	-12
▁Holt	-12
▁wedge	-12
▁ovation	-12
▁temptation	-12
46	-12
yer	-12
▁Mul	-12
▁cultures	-12
▁insults	-12
▁Simmons	-12
▁acknowledging	-12
▁Miguel	-12
▁Osama	-12
▁dazzle	-12
▁Milton	-12
▁ginger	-12
▁submarine	-12
▁Stern	-12
▁Cliff	-12
TON	-12
▁salute	-12
▁175	-12
▁kits	-12
▁disadvantage	-12
▁Lamar	-12
▁minimise	-12
▁deputies	-12
▁levy	-12
▁journeys	-12
▁dread	-12
▁sometime	-12
iva	-12
entity	-12
▁inmate	-12
▁mechanisms	-12
▁broadcasters	-12
▁Dembele	-12
▁gloss	-12
▁Moody	-12
▁encouragement	-12
▁comprise	-12
▁Cas	-12
▁militias	-12
▁transmitted	-12
▁Belarus	-12
▁spoon	-12
hir	-12
▁Affordable	-12
▁crave	-12
hall	-12
▁knit	-12
42	-12
▁Starting	-12
▁synthetic	-12
▁pedestrian	-12
ann	-12
▁Buffett	-12
▁tributes	-12
▁Harrington	-12
▁wreckage	-12
.75	-12
▁limbs	-12
▁lingering	-12
▁prototype	-12
▁cares	-12
▁allegiance	-12
▁cathedral	-12
▁wonders	-12
▁binge	-12
IL	-12
▁Ji	-12
▁RELATED	-12
▁emergence	-12
▁annoyed	-12
▁absorbed	-12
fan	-12
▁stigma	-12
▁flashes	-12
▁populated	-12
▁Tur	-12
▁cashback	-12
▁penis	-12
▁expires	-12
▁fiancé	-12
▁Et	-12
▁intensified	-12
▁Citigroup	-12
▁forefront	-12
▁Link	-12
▁museums	-12
▁richer	-12
▁RO	-12
▁avoidance	-12
made	-12
▁abortions	-12
▁Paradise	-12
▁losers	-12
▁Eli	-12
dis	-12
▁Tweet	-12
▁shap	-12
▁Cer	-12
▁Diaz	-12
▁Mine	-12
▁boardroom	-12
▁Barker	-12
▁strengthened	-12
mmer	-12
▁rig	-12
▁rows	-12
ake	-12
▁coordinate	-12
▁vertical	-12
▁Brennan	-12
▁summary	-12
▁Tube	-12
▁Essendon	-12
▁Fitzgerald	-12
▁Guantanamo	-12
▁overthrow	-12
▁Darwin	-12
ón	-12
▁royalty	-12
▁heel	-12
▁Solo	-12
▁nette	-12
cker	-12
▁medics	-12
▁Banking	-12
▁bo	-12
▁rocking	-12
▁Confederation	-12
▁clown	-12
▁Construction	-12
▁Bravo	-12
▁stack	-12
▁branding	-12
▁bowel	-12
▁contemplat	-12
▁screamed	-12
▁Catch	-12
▁escalation	-12
72	-12
▁Mirren	-12
▁Dragon	-12
▁Lea	-12
▁cellphone	-12
oma	-12
▁qualifiers	-12
▁Veterans	-12
▁Serbian	-12
▁Boss	-12
vers	-12
▁puzzle	-12
▁indecent	-12
▁thieves	-12
▁supervision	-12
oun	-12
▁Unite	-12
▁IRS	-12
▁secrecy	-12
▁OPEC	-12
▁Dorset	-12
▁Colbert	-12
▁comme	-12
▁scholar	-12
sie	-12
▁revolt	-12
sis	-12
▁refrain	-12
▁Breaking	-12
▁den	-12
▁spur	-12
▁Koch	-12
▁ceremonies	-12
▁Doping	-12
▁Restaurant	-12
▁illusion	-12
▁Yorker	-12
▁disadvantaged	-12
und	-12
▁monument	-12
▁eclipse	-12
▁backers	-12
53	-12
ées	-12
▁Kante	-12
▁jihadist	-12
▁Paddy	-12
▁NO	-12
▁catering	-12
▁congressman	-12
▁sufferers	-12
ees	-12
▁mines	-12
▁valley	-12
▁adhere	-12
▁upsetting	-12
▁frontman	-12
▁indicted	-12
▁rainbow	-12
▁enjoyable	-12
▁perch	-12
▁Aviva	-12
▁spann	-12
▁po	-12
ovic	-12
▁lo	-12
▁bureaucracy	-12
▁pneumonia	-12
▁Competition	-12
▁Goodison	-12
▁tipping	-12
▁wig	-12
▁brokers	-12
hn	-12
▁Fernandez	-12
▁Monroe	-12
▁SW	-12
▁functional	-12
▁cries	-12
▁envelope	-12
▁fairy	-12
▁exemption	-12
▁adverts	-12
▁Affleck	-12
▁illicit	-12
▁Operating	-12
▁Pretty	-12
▁screened	-12
▁fairway	-12
▁fatalities	-12
▁systemic	-12
▁secular	-12
▁Tracey	-12
▁confess	-12
▁ruins	-12
▁vibe	-12
ude	-12
tric	-12
▁annuity	-12
▁generosity	-12
▁MLS	-12
▁dental	-12
▁emphasize	-12
▁jihadists	-12
▁Clinic	-12
▁spice	-12
▁jointly	-12
▁pedestrians	-12
tted	-12
▁batsmen	-12
▁Fargo	-12
▁8.5	-12
las	-12
▁mums	-12
▁Heights	-12
▁Touch	-12
▁Wan	-12
▁barbecue	-12
▁Spider	-12
▁invention	-12
▁fray	-12
▁reminding	-12
▁artwork	-12
▁scalp	-12
▁Kurds	-12
▁Zara	-12
bag	-12
▁analysed	-12
▁snacks	-12
▁banana	-12
▁114	-12
▁supervisor	-12
▁dubious	-12
▁buys	-12
▁throwback	-12
▁Loft	-12
▁prais	-12
▁accusation	-12
,400	-12
▁legislators	-12
▁ticking	-12
▁guts	-12
shaw	-12
▁Sho	-12
▁Cymru	-12
▁Hemsworth	-12
▁Ora	-12
▁Rickie	-12
▁Watts	-12
▁Tab	-12
▁builds	-12
▁cinemas	-12
▁Fabregas	-12
▁hygiene	-12
▁Delaware	-12
▁puppy	-12
▁slapped	-12
▁Morsi	-12
▁oath	-12
▁Hogg	-12
iti	-12
▁Gore	-12
▁housed	-12
▁Nuclear	-12
▁contingent	-12
▁PhD	-12
▁consultants	-12
▁Watching	-12
▁danced	-12
▁implant	-12
▁badge	-12
▁Shepherd	-12
▁Ladies	-12
▁vaccination	-12
▁protester	-12
▁yr	-12
▁Mesu	-12
ù	-12
▁expedition	-12
62	-12
▁skeptical	-12
▁Booked	-12
▁outsider	-12
▁Edge	-12
▁fruits	-12
▁hoodie	-12
▁Hour	-12
▁Bol	-12
▁Gibraltar	-12
▁Indigenous	-12
▁Zhang	-12
▁sustainability	-12
▁snapshot	-12
▁Level	-12
▁Gibbs	-12
▁planting	-12
ender	-12
▁unleashed	-12
▁Nolan	-12
▁Pic	-12
eck	-12
▁drowned	-12
ffluent	-12
cock	-12
ien	-12
▁weaknesses	-12
▁Coca	-12
▁Flint	-12
▁Depression	-12
▁balancing	-12
▁discomfort	-12
▁statute	-12
▁Chip	-12
▁gasp	-12
mal	-12
▁insects	-12
▁Channing	-12
ü	-12
▁Operations	-12
99	-12
▁submission	-12
▁census	-12
▁rampant	-12
▁offending	-12
tter	-12
▁midday	-12
▁Pell	-12
▁Jos	-12
▁signatures	-12
▁rampage	-12
▁descend	-12
▁Dodd	-12
▁Nicki	-12
▁imply	-12
▁reclaim	-12
▁inadvertent	-12
▁dodgy	-12
▁tasting	-12
▁Lip	-12
▁lent	-12
▁orient	-12
▁payday	-12
▁pitching	-12
ancy	-12
chen	-12
▁obstacle	-12
▁Initiative	-12
▁cardiac	-12
▁dealings	-12
▁debated	-12
▁230	-12
▁Ole	-12
▁Gloucester	-12
▁Orthodox	-12
▁legitimacy	-12
▁varying	-12
▁environments	-12
▁surroundings	-12
▁awe	-12
▁Finding	-12
▁undermining	-12
▁Felix	-12
▁midweek	-12
▁Bachelorette	-12
▁spinner	-12
▁wolf	-12
▁respectful	-12
▁Driver	-12
wyn	-12
▁diluted	-12
▁Solskjaer	-12
▁°	-12
▁weighs	-12
▁envy	-12
▁Calvin	-12
▁arise	-12
▁daunting	-12
mb	-12
▁Guinness	-12
▁dapper	-12
▁Rowling	-12
▁placement	-12
▁affirm	-12
rid	-12
▁harness	-12
▁disagreed	-12
▁Heavy	-12
▁elusive	-12
▁extravagant	-12
▁charismatic	-12
▁Yellow	-12
rine	-12
▁Ter	-12
▁payout	-12
▁assessments	-12
▁ri	-12
▁Nash	-12
▁4.2	-12
▁bald	-12
▁adjacent	-12
▁liabilities	-12
▁Rivers	-12
▁taxation	-12
pu	-12
▁Aldi	-12
43	-12
eth	-12
▁relian	-12
▁Yale	-12
▁seaside	-12
▁wrestle	-12
▁225	-12
▁bats	-12
▁Romanian	-12
▁loser	-12
▁hypocrisy	-12
No	-12
▁Blatter	-12
AP	-12
br	-12
▁bells	-12
▁progressed	-12
tri	-12
▁alarmed	-12
▁thirty	-12
▁Salazar	-12
▁females	-12
▁provinces	-12
▁Conservation	-12
▁variant	-12
▁Nokia	-12
▁containers	-12
▁verify	-12
▁footed	-12
▁Conduct	-12
▁Petr	-12
▁marching	-12
▁closet	-12
▁Speed	-12
hurst	-12
▁vendors	-12
▁tuned	-12
▁ravag	-12
▁sober	-12
▁aligned	-12
▁indulge	-12
▁Bercow	-12
▁Rutherford	-12
▁dominating	-12
▁Walcott	-12
▁Bach	-12
▁Ble	-12
▁Gatlin	-12
▁Byron	-12
▁carriage	-12
▁Zurich	-12
▁Dijk	-12
▁Value	-12
▁departing	-12
▁soften	-12
iki	-12
▁Haley	-12
▁scramble	-12
▁Probably	-12
▁logistics	-12
▁lunchtime	-12
▁cakes	-12
▁orchestrat	-12
▁editors	-12
▁patron	-12
▁swearing	-12
▁Jacques	-12
▁Catalonia	-12
▁unhealthy	-12
▁besides	-12
▁deficits	-12
load	-12
▁Gau	-12
▁Greene	-12
▁swapp	-12
▁booze	-12
▁initiat	-12
▁remembering	-12
▁texture	-12
▁praying	-12
Re	-12
▁Ship	-12
▁Rohingya	-12
▁Circle	-12
▁motorbike	-12
▁berth	-12
▁slid	-12
▁similarities	-12
▁begging	-12
▁cows	-12
▁Strategic	-12
▁gunfire	-12
▁Sergei	-12
▁Mental	-12
▁fathers	-12
▁Moses	-12
▁managerial	-12
▁sliced	-12
▁disc	-12
▁unleash	-12
dic	-12
▁Rosen	-12
▁CT	-12
▁Beirut	-12
▁mercy	-12
▁outcry	-12
▁Sinclair	-12
▁Judy	-12
▁800,000	-12
lbs	-12
▁magnet	-12
▁Sinn	-12
▁glam	-12
▁Alba	-12
cette	-12
cra	-12
▁Isn	-12
▁streams	-12
▁jackets	-12
▁Gul	-12
▁gum	-12
41	-12
gui	-12
▁Soul	-12
▁ferocious	-12
▁breeze	-12
▁Safe	-12
▁cocktails	-12
tty	-12
▁liar	-12
▁Pur	-12
▁liberals	-12
▁superhero	-12
▁enrolled	-12
▁goalscorer	-12
▁Plaza	-12
.25	-12
▁scholarship	-12
▁condemnation	-12
▁schoolboy	-12
ologist	-12
▁tents	-12
▁Teachers	-12
▁Dam	-12
▁accolade	-12
▁alternate	-12
▁amusing	-12
▁Wy	-12
▁festivals	-12
▁Cr	-12
▁Alexandria	-12
▁revived	-12
▁cancers	-12
74	-12
▁afterward	-12
cus	-12
▁ju	-12
link	-12
▁Zaha	-12
02	-12
▁tempting	-12
▁Viewers	-12
▁sci	-12
▁Weight	-12
▁verse	-12
57	-12
▁112	-12
▁blouse	-12
▁altercation	-12
▁Footage	-12
▁battleground	-12
▁simpler	-12
▁raven	-12
▁maritime	-12
▁Eurovision	-12
▁owes	-12
▁106	-12
ace	-12
▁creators	-12
zz	-12
▁poly	-12
ological	-12
anda	-12
▁Variety	-12
▁devastation	-12
▁Shearer	-12
▁cardiovascula	-12
08	-12
▁adjustment	-12
▁Zu	-12
owski	-12
clined	-12
ase	-12
▁Geordie	-12
▁Supplied	-12
▁utilities	-12
▁Hastings	-12
▁Foley	-12
▁tease	-12
imo	-12
,800	-12
▁expressions	-12
▁Falls	-12
▁inconsistent	-12
▁Desert	-12
▁Ras	-12
▁proximity	-12
▁attractions	-12
▁bravery	-12
rio	-12
▁155	-12
▁curtain	-12
▁morally	-12
64	-12
▁Ap	-12
▁Pot	-12
▁miscarriage	-12
▁civic	-12
▁unofficial	-12
▁extinction	-12
▁tbsp	-12
▁Swans	-12
▁betrayed	-12
▁borne	-12
▁desired	-12
▁Semitism	-12
▁Observatory	-12
▁curtail	-12
▁opioid	-12
▁sunk	-12
sia	-12
▁anytime	-12
▁tempo	-12
▁upload	-12
▁TO	-12
▁Aubameyang	-12
▁atrocities	-12
▁graduation	-12
▁Defoe	-12
▁spearhead	-12
▁Stirling	-12
theless	-12
bon	-12
▁Ny	-12
▁beforehand	-12
▁remake	-12
▁traits	-12
▁floated	-12
▁tomb	-12
▁snatch	-12
▁Soho	-12
▁Ivy	-12
▁inaccurate	-12
▁Lodge	-12
▁hugged	-12
▁cheated	-12
iri	-12
▁123	-12
▁Observer	-12
▁Tro	-12
▁expelled	-12
87	-12
▁spinal	-12
▁raping	-12
▁continental	-12
▁Deborah	-12
▁defiance	-12
▁Sister	-12
▁spurr	-12
▁emulate	-12
▁108	-12
▁Squad	-12
▁Than	-12
▁monkey	-12
▁pumping	-12
▁116	-12
▁Winfrey	-12
▁whipped	-12
▁Bronx	-12
▁hostility	-12
▁persons	-12
tie	-12
▁Musical	-12
▁drills	-12
▁2.0	-12
▁instructor	-12
▁whisky	-12
Be	-12
▁imagery	-12
▁troop	-12
▁Constable	-12
▁Meeting	-12
▁predecessors	-12
▁hurts	-12
▁confession	-12
▁guitarist	-12
▁teache	-12
▁113	-12
▁brilliance	-12
▁vault	-12
▁horn	-12
▁Opening	-12
▁Luton	-12
▁angri	-12
▁bookings	-12
▁Upton	-12
▁Borders	-12
▁Kara	-12
▁yo	-12
▁earnest	-12
▁Running	-12
▁Barnier	-12
▁crafted	-12
▁icy	-12
83	-12
▁Button	-12
▁Uni	-12
▁escalated	-12
pec	-12
03	-12
ration	-12
▁Manny	-12
▁Tunisian	-12
▁sings	-12
▁daylight	-12
▁boasting	-12
foot	-12
▁premise	-12
▁Break	-12
▁roller	-12
07	-12
hole	-12
mine	-12
▁Cunningham	-12
▁mayoral	-12
▁groin	-12
▁Billie	-12
▁loosen	-12
▁instability	-12
▁Sasha	-12
▁Vision	-12
▁toilets	-12
▁Liberia	-12
aka	-12
▁systematic	-12
▁ref	-12
▁packs	-12
OS	-12
UR	-12
▁acknowledges	-12
▁mocking	-12
▁Counsel	-12
▁consortium	-12
▁malaria	-12
▁pinned	-12
▁Falcon	-12
▁Stranger	-12
▁Bass	-12
▁roadside	-12
▁Heaven	-12
▁dossier	-12
▁Canyon	-12
▁Vietnamese	-12
▁Cover	-12
▁Shia	-12
▁referenc	-12
▁1800	-12
▁indicator	-12
▁administer	-12
▁continuous	-12
▁evolving	-12
▁surging	-12
▁translation	-12
▁racket	-12
▁hinder	-12
▁cleaned	-12
▁exceptions	-12
▁raging	-12
▁sensor	-12
▁emphasiz	-12
▁rewarding	-12
▁Claudia	-12
aire	-12
▁Region	-12
▁Belt	-12
▁doom	-12
▁saddened	-12
▁Holding	-12
▁realising	-12
▁punt	-12
95	-12
▁hierarchy	-12
▁generic	-12
▁builder	-12
▁Fiat	-12
▁grams	-12
▁circulated	-12
mber	-12
▁analyzed	-12
▁Rule	-12
▁Citizens	-12
▁Micro	-12
▁intersection	-12
▁fox	-12
▁selon	-12
cast	-12
lat	-12
▁amazed	-12
▁Attack	-12
▁strings	-12
▁inhabit	-12
▁sectarian	-12
▁implied	-12
▁Nintendo	-12
▁Romeo	-12
▁translated	-12
▁Hicks	-12
▁conferences	-12
card	-12
▁abolish	-12
▁Roosevelt	-12
▁autonomy	-12
▁havoc	-12
▁homelessness	-12
▁rift	-12
▁sunlight	-12
▁physicians	-12
▁pointer	-12
▁leaderboard	-12
54	-12
▁Violence	-12
▁Saturn	-12
▁plump	-12
▁schedules	-12
▁visibl	-12
▁swarm	-12
▁territorial	-12
▁LIVE	-12
▁announcements	-12
▁youths	-12
▁candles	-12
▁Ahmad	-12
▁ONS	-12
▁incorporate	-12
▁Tomorrow	-12
▁Johansson	-12
▁glitz	-12
▁Giving	-12
▁Equity	-12
▁Sixties	-12
▁Ghost	-12
▁policymakers	-12
▁towers	-12
▁Denise	-12
▁Hook	-12
▁Res	-12
▁emblazon	-12
▁oceans	-12
fully	-12
ava	-12
▁Coe	-12
▁Louisville	-12
▁greeting	-12
▁discharge	-12
▁1959	-12
ras	-12
▁inventory	-12
ug	-12
▁Corporate	-12
▁Falcao	-12
▁enquiries	-12
▁MVP	-12
▁avant	-12
▁NT	-12
▁surfaces	-12
▁grind	-12
▁await	-12
▁activated	-12
▁ironic	-12
▁rats	-12
▁renting	-12
bro	-12
▁Palestine	-12
▁vodka	-12
▁Schwartz	-12
▁congestion	-12
▁curator	-12
▁Switch	-12
▁underestimate	-12
▁attendant	-12
▁impoverished	-12
▁akin	-12
▁IAAF	-12
▁Walters	-12
▁Tourism	-12
▁divers	-12
▁tumbled	-12
▁spying	-12
▁Yan	-12
▁footprint	-12
▁unfolded	-12
▁strand	-12
▁packet	-12
▁extraordinari	-12
▁Ramirez	-12
mented	-12
▁twisted	-12
▁abducted	-12
▁Charter	-12
▁trader	-12
▁sandals	-12
▁marrying	-12
▁Honey	-12
06	-12
▁hormones	-12
▁Multi	-12
▁staple	-12
▁responds	-12
ual	-12
▁Aboriginal	-12
▁Winning	-12
▁harassed	-12
▁motherhood	-12
▁Willett	-12
▁Gra	-12
▁enacted	-12
▁Pie	-12
▁barrage	-12
▁captive	-12
▁interrogation	-12
bell	-12
▁Missing	-12
▁Pas	-12
▁lows	-12
▁Led	-12
▁AB	-12
▁emphasise	-12
▁addict	-12
ê	-12
▁Blasio	-12
▁Dur	-12
▁diamonds	-12
▁ham	-12
▁majors	-12
▁conceived	-12
dom	-12
▁depart	-12
▁650	-12
▁camping	-12
▁cracks	-12
rus	-12
▁CR	-12
having	-12
▁Joanne	-12
▁Sel	-12
▁Benghazi	-12
▁Pfizer	-12
▁laundry	-12
▁prominence	-12
▁Gandhi	-12
▁Democracy	-12
▁overdue	-12
▁Solomon	-12
▁Email	-12
▁fluff	-12
▁borough	-12
att	-12
hor	-12
ws	-12
▁rejects	-12
▁Bosnia	-12
▁Streep	-12
▁disbelief	-12
▁testament	-12
▁Jump	-12
▁Conn	-12
▁escalate	-12
▁reasonabl	-12
▁Dun	-12
▁crawl	-12
▁delegate	-12
▁biting	-12
▁linebacker	-12
▁Garros	-12
▁ethic	-12
▁pains	-12
▁Higher	-12
▁rumor	-12
▁Steenkamp	-12
bl	-12
73	-12
wung	-12
▁favorable	-12
▁Antoine	-12
▁Pri	-12
▁Morales	-12
eng	-12
▁Qu	-12
▁sanctioned	-12
▁Beat	-12
▁homage	-12
▁imperative	-12
▁specify	-12
▁meddling	-12
▁spun	-12
▁boarded	-12
▁Kiss	-12
TC	-12
▁pencil	-12
▁jumps	-12
▁Ambulance	-12
▁cushion	-12
▁Mut	-12
▁Marina	-12
▁Ark	-12
▁surfing	-12
SS	-12
▁amendments	-12
▁Blind	-12
▁hurry	-12
▁suicidal	-12
▁calculations	-12
▁Hack	-12
▁originated	-12
▁reel	-12
▁Owens	-12
▁Trading	-12
▁multinational	-12
▁Nikki	-12
▁Cain	-12
▁firearm	-12
▁blasts	-12
▁seriousness	-12
▁RA	-12
▁Chilean	-12
▁fu	-12
▁disturbed	-12
▁gan	-12
▁resorts	-12
▁Underground	-12
▁sung	-12
▁dislike	-12
lé	-12
▁Account	-12
▁peculiar	-12
▁overdraft	-12
▁prank	-12
▁revert	-12
▁tomato	-12
▁critique	-12
▁cur	-12
▁unveiling	-12
▁Raul	-12
▁Jennings	-12
▁Persie	-12
fall	-12
▁orientation	-12
▁Fran	-12
▁Lan	-12
▁balances	-12
▁priests	-12
▁automotive	-12
▁unsurprising	-12
▁Wealth	-12
▁layered	-12
▁graft	-12
▁abruptly	-12
▁quad	-12
HA	-12
▁topless	-12
▁ashes	-12
▁conceding	-12
▁injunction	-12
▁animation	-12
▁limelight	-12
▁seafood	-12
iser	-12
▁Wash	-12
▁3.1	-12
dra	-12
▁Serb	-12
▁qualifications	-12
▁Wolff	-12
▁Ill	-12
▁damp	-12
▁strains	-12
▁grieving	-12
ral	-12
▁Sprint	-12
▁neglected	-12
▁Bert	-12
▁Flash	-12
nel	-12
▁3.8	-12
▁polished	-12
▁Dell	-12
▁Gha	-12
▁blueprint	-12
▁mitigate	-12
▁entitlement	-12
▁Wis	-12
mas	-12
▁spirited	-12
▁peu	-12
▁Slave	-12
▁Cindy	-12
▁Stories	-12
▁amend	-12
▁Zone	-12
▁AFC	-12
▁Vanity	-12
▁Truth	-12
hood	-12
▁Passengers	-12
▁disrespect	-12
BO	-12
▁Return	-12
cle	-12
▁machinery	-12
▁passports	-12
▁noble	-12
eal	-12
▁distract	-12
▁Marks	-12
bot	-12
▁Eleven	-12
▁playwright	-12
▁outweigh	-12
▁traces	-12
▁scout	-12
▁sidewalk	-12
▁assurances	-12
view	-12
▁Yemeni	-12
▁instruct	-12
ici	-12
▁arsenal	-12
▁Enrique	-12
▁liable	-12
▁feather	-12
oud	-12
▁MD	-12
▁intervened	-12
▁Clo	-12
▁lick	-12
▁staunch	-12
▁stunner	-12
▁tapping	-12
▁Highland	-12
▁obstruction	-12
▁masses	-12
▁Millie	-12
▁bodi	-12
▁Strange	-12
▁Absolutely	-12
▁cater	-12
▁baseline	-12
▁creepy	-12
▁Margot	-12
▁desirable	-12
▁Woody	-12
▁warrants	-12
▁cannon	-12
▁glove	-12
▁Tai	-12
ucci	-12
▁Azerbaijan	-12
took	-12
▁Airbnb	-12
▁cuisine	-12
▁Prosecution	-12
▁mineral	-12
▁risked	-12
▁VW	-12
▁wartime	-12
▁Bone	-12
bus	-12
▁Fantasy	-12
▁rejoin	-12
▁finalist	-12
▁triumphant	-12
▁Kilda	-12
▁haircut	-12
▁Vikings	-12
longside	-12
avi	-12
▁colony	-12
int	-12
▁possessions	-12
▁TA	-12
ière	-12
▁Judiciary	-12
▁président	-12
▁iOS	-12
▁Fin	-12
▁gloom	-12
▁commenting	-12
▁yelled	-12
▁Eng	-12
▁Drama	-12
▁rout	-12
▁Equally	-12
▁obsessive	-12
▁lag	-12
adi	-12
▁swelling	-12
▁hooker	-12
▁ash	-12
▁authoritarian	-12
▁halves	-12
▁Koepka	-12
▁catalyst	-12
▁sluggish	-12
▁resentment	-12
▁manipulation	-12
▁angel	-12
IM	-12
86	-12
▁overshadowed	-12
▁infants	-12
▁st	-12
llo	-12
▁automated	-12
▁Mara	-12
▁intern	-12
▁freestyle	-12
▁diverted	-12
▁Weekend	-12
▁merits	-12
▁instincts	-12
▁infect	-12
▁Ricciardo	-12
▁galleries	-12
▁necessity	-12
▁therapeutic	-12
▁persona	-12
▁AD	-12
Ma	-12
▁Mean	-12
▁Wheeler	-12
▁Firm	-12
▁sailors	-12
▁Training	-12
▁glitter	-12
▁Cynthia	-12
▁Lothian	-12
▁Monster	-12
▁belongings	-12
▁curse	-12
▁Salisbury	-12
▁hoax	-12
▁Hilary	-12
▁Deb	-12
▁Randy	-12
▁Kobe	-12
▁stronghold	-12
lip	-12
▁observ	-12
▁fog	-12
log	-12
▁sublime	-12
▁bracket	-12
▁crippling	-12
▁creep	-12
▁adventures	-12
▁Cech	-12
▁gases	-12
▁Yi	-12
▁congress	-12
▁Wiltshire	-12
▁guiding	-12
▁brakes	-12
▁therapist	-12
▁IP	-12
▁AR	-12
ERS	-12
▁policemen	-12
▁Gus	-12
▁patriotic	-12
▁density	-12
▁uncover	-12
▁reinforc	-12
▁curls	-12
ites	-12
▁Whenever	-12
▁favored	-12
▁bur	-12
▁password	-12
▁chilly	-12
▁Bomb	-12
▁TB	-12
▁Shades	-12
▁Kristen	-12
▁headaches	-12
▁interventions	-12
▁villagers	-12
▁belts	-12
▁Lego	-12
▁Gone	-12
set	-12
▁Huckabee	-12
▁desperation	-12
▁salvage	-12
▁gestures	-12
▁Roosters	-12
igh	-12
,700	-12
▁smokers	-12
▁Flu	-12
▁Tristan	-12
▁Derbyshire	-12
▁Bruins	-12
▁Planning	-12
▁Wool	-12
▁Strait	-12
▁Dev	-12
▁Lil	-12
▁PG	-12
▁MC	-12
▁zip	-12
▁Melanie	-12
▁graffiti	-12
▁pistol	-12
▁forehead	-12
▁expectancy	-12
▁Confederate	-12
▁reluctance	-12
▁jumpsuit	-12
▁Titanic	-12
aga	-12
▁realm	-12
▁carers	-12
▁foam	-12
▁Bilic	-12
▁quantity	-12
▁Lock	-12
▁foremost	-12
oon	-12
▁shale	-12
but	-12
▁tossed	-12
stra	-12
▁gradual	-12
▁Herbert	-12
▁Finch	-12
roy	-12
▁Tucker	-12
iko	-12
▁mesh	-12
▁fulfilling	-12
▁tumor	-12
▁Benfica	-12
▁financier	-12
▁Appear	-12
ort	-12
▁hiking	-12
▁Calais	-12
▁Demand	-12
▁haunted	-12
▁Sav	-12
▁coping	-12
▁easie	-12
▁intimidation	-12
▁Frederick	-12
▁batt	-12
rak	-12
▁Chapel	-12
▁conform	-12
▁Traditional	-12
▁Bow	-12
▁mosquitoes	-12
▁builders	-12
▁0.9	-12
▁assurance	-12
▁concession	-12
▁Mama	-12
▁promoter	-12
▁torch	-12
▁buttons	-12
▁Enforcement	-12
▁metropolitan	-12
▁undisclosed	-12
▁navigation	-12
▁Uncle	-12
craft	-12
.35	-12
▁clutching	-12
▁rave	-12
▁saddle	-12
▁jour	-12
▁Gran	-12
▁stems	-12
▁psychiatrist	-12
erman	-12
▁vouchers	-12
▁Reno	-12
▁Sunshine	-12
▁loneliness	-12
▁impairment	-12
▁Economy	-12
▁undertaking	-12
▁Tickets	-12
▁Nile	-12
zan	-12
▁Engineering	-12
▁tyres	-12
▁onion	-12
▁distraught	-12
▁maturity	-12
▁integral	-12
▁forge	-12
71	-12
▁Scheme	-12
wen	-12
▁defying	-12
▁precarious	-12
▁ME	-12
▁Goal	-12
▁ces	-12
▁graves	-12
▁Voters	-12
▁Feel	-12
etta	-12
▁Hussain	-12
▁discriminate	-12
▁timber	-12
▁Higgins	-12
▁PE	-12
OL	-12
▁contemplate	-12
▁cheeks	-12
▁ci	-12
ito	-12
▁Bairstow	-12
▁Bahamas	-12
▁Fleet	-12
▁stadiums	-12
feld	-12
IE	-12
▁commemorate	-12
▁mantra	-12
▁Gur	-12
▁circular	-12
▁computing	-12
▁BHP	-12
▁Damien	-12
▁Chance	-12
▁smuggle	-12
▁realities	-12
▁Orchestra	-12
▁EBITDA	-12
▁dumping	-12
▁Marin	-12
▁Irvine	-12
▁Honest	-12
▁licenses	-12
▁aussi	-12
▁sausage	-12
ct	-12
▁interviewer	-12
unconstitutional	-12
▁fiber	-12
▁wallet	-12
▁Dy	-12
▁Planned	-12
▁Railway	-12
lecommunications	-12
▁Erik	-12
▁Appeals	-12
▁1500	-12
▁sincere	-12
urthermore	-12
▁CV	-12
▁Elon	-12
▁exceeding	-12
▁specialise	-12
▁Mou	-12
▁peacefully	-12
▁caretaker	-12
▁Universe	-12
▁Helmand	-12
▁Nonetheless	-12
▁tangible	-12
▁trajectory	-12
▁1948	-12
▁Ofcom	-12
▁downgrade	-12
cott	-12
▁recreational	-12
▁postal	-12
wal	-12
▁exaggerated	-12
▁gong	-12
▁invasive	-12
TS	-12
▁slopes	-12
▁worthwhile	-12
SP	-12
▁elementary	-12
▁Witnesses	-12
▁Lille	-12
▁2025	-12
▁puppet	-12
▁Paisley	-12
▁compassionate	-12
▁Webster	-12
▁reeling	-12
▁perpetrators	-12
▁Describ	-12
▁Guards	-12
▁takeaway	-12
phy	-12
▁tainted	-12
▁Pub	-12
▁pragmatic	-12
▁999	-12
▁être	-12
hin	-12
▁lament	-12
.55	-12
▁reversal	-12
▁gruelling	-12
▁Charity	-12
▁broaden	-12
▁Kathy	-12
▁Samoa	-12
▁Rocky	-12
▁frontier	-12
▁pudding	-12
▁whereabouts	-12
▁stakeholders	-12
▁Wear	-12
written	-12
EC	-12
▁enact	-12
▁recycled	-12
▁burglary	-12
▁evacuate	-12
▁distressing	-12
▁jerk	-12
At	-12
▁Harley	-12
▁marker	-12
MT	-12
▁proteins	-12
▁hips	-12
▁purported	-12
▁accustom	-12
▁sphere	-12
▁cousins	-12
▁founders	-12
▁Becky	-12
▁pushe	-12
▁daytime	-12
▁slate	-12
▁precautions	-12
▁holidaymakers	-12
▁plaster	-12
▁choir	-12
▁bumper	-12
▁Hold	-12
▁Rica	-12
▁criticis	-12
▁stereotypes	-12
▁guides	-12
▁Baron	-12
▁Moroccan	-12
▁trumpet	-12
▁Latest	-12
▁Pal	-12
▁Advisory	-12
▁prints	-12
HO	-12
▁congratulated	-12
▁Ava	-12
▁Eurosceptic	-12
▁prostitution	-12
▁proxy	-12
▁Donovan	-12
▁motives	-12
▁Stefan	-12
▁Proud	-12
▁blackmail	-12
▁75,000	-12
▁Manag	-12
▁romp	-12
raught	-12
▁heroine	-12
▁picnic	-12
▁Harbor	-12
▁Nova	-12
▁unrelated	-12
▁Ivory	-12
▁spawn	-12
▁Inverness	-12
▁faculty	-12
hol	-12
▁pensioner	-12
CT	-12
▁Tin	-12
shan	-12
.60	-12
mond	-12
▁Notes	-12
▁Marriage	-12
▁Katrina	-12
.49	-12
ree	-12
▁fe	-12
04	-12
▁scrambled	-12
▁Machine	-12
▁swathe	-12
▁Est	-12
▁articulate	-12
▁Algeria	-12
▁Kon	-12
cca	-12
▁compatriot	-12
▁reaffirm	-12
▁Ottawa	-12
▁Durant	-12
▁IVF	-12
tha	-12
▁compounds	-12
IP	-12
▁Bean	-12
▁Lucky	-12
▁Fly	-12
▁grill	-12
▁Superintendent	-12
html	-12
▁progression	-12
BC	-12
▁Waters	-12
▁melt	-12
▁spectacularly	-12
mie	-12
▁wildfires	-12
▁shadows	-12
▁pundit	-12
▁Bernabeu	-12
▁Commercial	-12
▁correspondence	-12
▁paradise	-12
▁screenplay	-12
▁Northwest	-12
▁Cla	-12
▁discusses	-12
reby	-12
▁Skin	-12
▁confinement	-12
▁Bain	-12
▁Pour	-12
▁crab	-12
▁Marketing	-12
▁partnered	-12
▁Barlow	-12
▁exquisite	-12
▁collusion	-12
▁imaging	-12
▁4.4	-12
▁affectionate	-12
▁prep	-12
▁Easy	-12
▁rib	-12
▁standout	-12
▁rot	-12
▁harden	-12
▁Nad	-12
▁Croatian	-12
▁lime	-12
▁Stalin	-12
▁elle	-12
▁suitcase	-12
▁selective	-12
▁goers	-12
▁signall	-12
▁timely	-12
▁Shan	-12
▁Midwest	-12
▁Ahmadinejad	-12
▁collapsing	-12
▁unarmed	-12
▁eternal	-12
▁Lochte	-12
▁feeds	-12
▁niche	-12
▁slope	-12
▁swallow	-12
▁Hawthorn	-12
▁Det	-12
▁Kyi	-12
▁Wong	-12
▁vegetarian	-12
▁Kos	-12
OP	-12
ն	-12
▁Zero	-12
▁Programme	-12
power	-12
▁concealed	-12
▁tearing	-12
▁Sid	-12
▁implicat	-12
▁Politico	-12
▁Phone	-12
▁pathway	-12
los	-12
gger	-12
ison	-12
▁homemade	-12
▁factions	-12
▁symptom	-12
▁Raw	-12
▁deadlies	-12
.80	-12
▁Michelin	-12
▁Bernanke	-12
▁contamination	-12
▁Paolo	-12
▁overly	-12
▁profitability	-12
▁destiny	-12
▁Track	-12
▁centered	-12
▁DO	-12
▁Ferrer	-12
▁Riyadh	-12
▁Kraft	-12
▁tenant	-12
▁airplane	-12
▁touchline	-12
▁Hurdle	-12
▁abundance	-12
▁hesitate	-12
▁Trek	-12
state	-12
gro	-12
watch	-12
▁declares	-12
▁1953	-12
▁Rae	-12
▁integrate	-12
eux	-12
▁gutted	-12
▁Zuma	-12
▁Word	-12
awa	-12
▁sq	-12
▁Falcons	-12
uthorised	-12
▁biased	-12
▁Quebec	-12
▁insulin	-12
▁crust	-12
▁Hayley	-12
ces	-12
▁Shorten	-12
▁Mus	-12
▁sequin	-12
▁obstruct	-12
▁hatch	-12
▁119	-12
51	-12
▁suspicions	-12
▁Paper	-12
▁Barnett	-12
▁ScienceDaily	-12
▁Cannon	-12
▁Hayden	-12
▁assistants	-12
▁pageant	-12
▁700,000	-12
▁standings	-12
iad	-12
▁Trip	-12
▁demolition	-12
▁miraculous	-12
▁scrambling	-12
▁perilous	-12
▁Gillard	-12
▁suppress	-12
ais	-12
▁Rossi	-12
▁Celtics	-12
▁Suu	-12
matic	-12
ography	-12
▁awake	-12
▁tornado	-12
▁Pulis	-12
▁avocado	-12
ido	-12
▁rigid	-12
▁diets	-12
▁adjustments	-12
▁Clyde	-12
FA	-12
bat	-12
▁servers	-12
▁Bowen	-12
pos	-12
▁polo	-12
▁profiles	-12
▁slogans	-12
▁intercepted	-12
▁tele	-12
▁EDT	-12
dio	-12
▁Growing	-12
▁Brain	-12
▁Booth	-12
▁plummeted	-12
▁choreograph	-12
▁Traffic	-12
▁Warnock	-12
▁weary	-12
▁allocation	-12
▁dessert	-12
▁interval	-12
▁109	-12
▁discourage	-12
▁frantic	-12
▁sceptical	-12
▁torso	-12
▁Ob	-12
▁visibility	-12
▁greed	-12
▁1958	-12
▁accountant	-12
ifying	-12
▁Italians	-12
▁conductor	-12
▁debacle	-12
▁festivities	-12
▁biology	-12
▁Reg	-12
▁enterprises	-12
via	-12
▁angles	-12
▁FAA	-12
▁Scar	-12
▁Maradona	-12
▁saint	-12
▁Jungle	-12
▁coordination	-12
▁captaincy	-12
▁deserted	-12
▁Armenian	-12
▁Flat	-12
▁faulty	-12
aud	-12
▁idiot	-12
▁RBI	-12
84	-12
▁Bai	-12
▁̃	-12
▁tracing	-12
▁bribery	-12
▁align	-12
▁Merrill	-12
▁IV	-12
▁phrases	-12
▁3,500	-12
▁Leaders	-12
▁Same	-12
▁downplay	-12
iah	-12
▁testosterone	-12
▁Ibiza	-12
▁persecution	-12
▁tonne	-12
ically	-12
▁feminism	-12
▁Phase	-12
▁Gillian	-12
▁debat	-12
▁vain	-12
▁handles	-12
▁Everest	-12
▁auditor	-12
sman	-12
▁capsule	-12
▁inspections	-12
▁fascinat	-12
▁ripe	-12
▁Parenthood	-12
chan	-12
▁Matteo	-12
▁bouncing	-12
sistence	-12
▁fling	-12
eurs	-12
▁heeled	-12
▁booed	-12
▁cafes	-12
TE	-12
▁Keir	-12
▁Twelve	-12
▁comparative	-12
▁Dickens	-12
▁wildcard	-12
▁Warwick	-12
▁Motion	-12
▁butcher	-12
▁axed	-12
▁punishing	-12
▁pine	-12
izer	-12
▁whistleblower	-12
dmirable	-12
▁Salvador	-12
▁inconvenience	-12
▁Prague	-12
▁Mickey	-12
▁occupy	-12
▁revisit	-12
▁Mountains	-12
▁Giles	-12
▁Corn	-12
▁Packers	-12
▁Meg	-12
▁Cru	-12
▁Tanzania	-12
Co	-12
▁Alvaro	-12
▁Speech	-12
▁Mackay	-12
▁earmark	-12
▁statues	-12
▁organiz	-12
▁Hit	-12
▁greatness	-12
▁mirrors	-12
▁Saleh	-12
▁unus	-12
▁cas	-12
▁Stra	-12
▁treble	-12
▁noisy	-12
▁Jail	-12
On	-12
▁Renee	-12
▁Famous	-12
▁Hertfordshire	-12
▁helpless	-12
▁onset	-12
▁scars	-12
▁Levi	-12
▁relieve	-12
▁HE	-12
are	-12
▁Tyga	-12
▁Quality	-12
▁Spotify	-12
▁probable	-12
▁4.3	-12
▁Lots	-12
▁Rashid	-12
▁Peters	-12
▁wag	-12
▁ver	-12
ome	-12
▁Regard	-12
▁Lehman	-12
▁Users	-12
▁ditched	-12
▁Buddhist	-12
▁Fremantle	-12
▁plots	-12
▁Sche	-12
▁smack	-12
▁Cecil	-12
▁una	-12
▁Muller	-12
▁pros	-12
▁Spe	-12
▁bon	-12
▁Nord	-12
▁seating	-12
app	-12
▁unavailable	-12
▁BB	-12
lett	-12
▁Baptist	-12
▁Neal	-12
▁implants	-12
▁Pole	-12
▁Michele	-12
▁surgeons	-12
▁remorse	-12
MP	-12
▁Album	-12
▁Carnival	-12
▁Cinema	-12
ify	-12
▁atomic	-12
rum	-12
▁facto	-12
▁Burn	-12
▁portable	-12
▁PHOTO	-12
▁Hearn	-12
▁protagonist	-12
▁unstable	-12
▁ineffective	-12
▁consolation	-12
▁wrapping	-12
▁Pierce	-12
▁Tatum	-12
▁fireplace	-12
▁listeners	-12
▁melting	-12
▁leftist	-12
▁Gregg	-12
▁Goldberg	-12
▁toppled	-12
▁unravel	-12
life	-12
▁solving	-12
▁pointers	-12
▁Judd	-12
▁Moeen	-12
▁Duty	-12
▁Steelers	-12
▁barn	-12
▁warrior	-12
▁Spin	-12
▁212	-12
▁statutor	-12
▁IBM	-12
▁Capt	-12
▁communal	-12
zon	-12
vie	-12
▁Strike	-12
eer	-12
ont	-12
▁dampen	-12
▁Jedi	-12
erson	-12
▁Andreas	-12
▁churn	-12
▁Outstanding	-12
▁depths	-12
▁bot	-12
▁petty	-12
▁DI	-12
▁monkeys	-12
▁immensely	-12
tom	-12
93	-12
▁withdrawing	-12
▁acquir	-12
▁discretion	-12
▁resurgence	-12
▁Kasich	-12
▁caucuses	-12
▁Schiff	-12
▁Karim	-12
cio	-12
▁vigilant	-12
▁incapable	-12
▁proactive	-12
▁Idris	-12
▁sandwiches	-12
▁rains	-12
ander	-12
▁Haas	-12
▁slack	-12
▁outdated	-12
▁shorten	-12
▁128	-12
▁Explain	-12
▁Ohuruogu	-12
▁intimidating	-12
▁Hop	-12
disproportionate	-12
▁winding	-12
▁ransom	-12
▁bob	-12
▁Arm	-12
▁lust	-12
▁Boots	-12
based	-12
▁defy	-12
▁Cle	-12
▁Fellaini	-12
▁Medvedev	-12
▁Raqqa	-12
▁iTunes	-12
▁prowess	-12
▁jackpot	-12
▁organize	-12
▁USS	-12
▁Screen	-12
▁casualty	-12
tory	-12
▁Neu	-12
▁tearful	-12
▁holdings	-12
▁Boro	-12
SON	-12
uel	-12
▁injections	-12
▁hoop	-12
▁escaping	-12
▁ASX	-12
▁3.9	-12
▁installment	-12
▁lions	-12
shire	-12
▁indicators	-12
▁defects	-12
▁118	-12
▁receipts	-12
▁chaired	-12
▁Parramatta	-12
▁stalwart	-12
▁turbulent	-12
▁wilderness	-12
▁wicked	-12
zel	-12
▁disruptive	-12
▁Bun	-12
▁Rou	-12
▁coastline	-12
▁Treaty	-12
▁Ravens	-12
▁AG	-12
▁tolerated	-12
eman	-12
▁nostalgia	-12
▁botched	-12
▁Clayton	-12
▁Flying	-12
▁Aviv	-12
▁humiliated	-12
▁Kas	-12
gor	-12
▁scathing	-12
▁Ramsay	-12
▁Slow	-12
▁trivial	-12
▁analyse	-12
▁Candy	-12
rac	-12
▁guarded	-12
▁Own	-12
▁Ala	-12
yr	-12
ith	-12
hel	-12
52	-12
▁collateral	-12
▁squash	-12
▁Crouch	-12
▁Perkins	-12
ille	-12
▁harmless	-12
ingham	-12
▁roar	-12
▁chi	-12
▁headphones	-12
▁drowning	-12
ified	-12
▁rehearsal	-12
▁737	-12
▁driveway	-12
▁McGrath	-12
▁Pokemon	-12
▁evangelical	-12
▁uncommon	-12
▁frontrunner	-12
▁Riverside	-12
▁brighter	-12
▁Grove	-12
▁Ethiopian	-12
▁blunder	-12
▁insurgent	-12
▁heartbreak	-12
▁stature	-12
▁pinpoint	-12
▁Dia	-12
rang	-12
▁competent	-12
▁screw	-12
▁Mol	-12
▁Lau	-12
▁Vel	-12
rad	-12
près	-12
▁Jude	-12
▁wounding	-12
▁capitalise	-12
▁ribs	-12
▁perks	-12
▁MSNBC	-12
▁activism	-12
▁galaxy	-12
▁reassurance	-12
▁concentrating	-12
▁Peterborough	-12
▁delaying	-12
▁shipments	-12
▁hunters	-12
▁Rivera	-12
▁107	-12
ode	-12
▁eruption	-12
▁Loose	-12
▁Eleanor	-12
▁grotesque	-12
▁leopard	-12
▁Flood	-12
▁termination	-12
▁Aniston	-12
▁workshop	-12
▁handgun	-12
▁beg	-12
▁117	-12
▁banter	-12
▁Fuel	-12
▁nut	-12
▁Rowe	-12
▁Johnstone	-12
▁artillery	-12
▁Rouhani	-12
▁undocu	-12
▁Shot	-12
▁bursting	-12
uit	-12
▁wraps	-12
▁Stefani	-12
▁trails	-12
▁hazard	-12
▁tribes	-12
▁wed	-12
▁heavier	-12
▁Chandler	-12
agh	-12
▁Toure	-12
▁Cow	-12
▁marquee	-12
▁Royals	-12
▁pipes	-12
▁spider	-12
▁favours	-12
▁overtake	-12
▁archive	-12
▁arc	-12
▁cripple	-12
▁misunderstand	-12
▁Carrick	-12
▁Sao	-12
▁Rhode	-12
▁efficiently	-12
▁upfront	-12
▁shrine	-12
▁elevator	-12
▁dent	-12
▁patches	-12
▁Charleston	-12
▁7.30	-12
▁Fleming	-12
▁Correspondent	-12
▁harrowing	-12
▁fishermen	-12
▁Gomes	-12
▁1956	-12
▁accordingly	-12
▁Kuwait	-12
▁YOU	-12
▁collided	-12
▁MA	-12
▁Motherwell	-12
▁appliances	-12
abi	-12
▁portions	-12
mended	-12
▁woeful	-12
▁abandoning	-12
dding	-12
▁Scha	-12
▁makeover	-12
▁grappl	-12
▁sy	-12
▁fracture	-12
▁erected	-12
▁Member	-12
▁Dwight	-12
▁Herrera	-12
▁bruising	-12
▁Popular	-12
▁outperform	-12
▁palette	-12
▁mimic	-12
▁bribes	-12
▁Papa	-12
nen	-12
▁owning	-12
▁Lallana	-12
▁Mahrez	-12
▁Patterson	-12
▁endeavour	-12
▁reliability	-12
▁Waitrose	-12
▁Oslo	-12
▁businessmen	-12
▁daddy	-12
▁rocker	-12
▁chilli	-12
▁Beer	-12
▁Thi	-12
▁marr	-12
▁exert	-12
▁Jaguar	-12
▁incompetence	-12
▁Nan	-12
▁2024	-12
▁blink	-12
▁malfunction	-12
▁mascara	-12
▁flair	-12
▁MLB	-12
▁Lifetime	-12
▁unified	-12
▁sans	-12
▁inherit	-12
▁jab	-12
▁avert	-12
ago	-12
▁ERA	-12
▁Roe	-12
▁Features	-12
▁Hang	-12
▁hollow	-12
▁Barber	-12
▁squander	-12
▁Claudio	-12
▁Ramadan	-12
▁marvellous	-12
▁Kendrick	-12
▁abide	-12
▁Newsom	-12
▁advertisers	-12
umi	-12
▁Fre	-12
▁armor	-12
▁270	-12
▁cleric	-12
Donnell	-12
▁Hale	-12
hrs	-12
▁circulating	-12
▁eleven	-12
▁preferences	-12
▁jack	-12
▁menace	-12
▁Consumers	-12
▁swings	-12
▁disappearing	-12
▁conquer	-12
▁Innovation	-12
▁Kathleen	-12
▁McKay	-12
▁Pamela	-12
▁composite	-12
▁Archie	-12
▁texting	-12
▁Flower	-12
▁Rhys	-12
tain	-12
sel	-12
▁professionalism	-12
▁RB	-12
northeastern	-12
98	-12
▁reunite	-12
▁smarter	-12
▁thunder	-12
▁Rap	-12
▁Ethan	-12
▁Pizza	-12
▁seizure	-12
▁skate	-12
▁baffled	-12
▁Shawn	-12
▁Chef	-12
▁145	-12
rou	-12
▁negotiators	-12
▁Advanced	-12
▁horrib	-12
▁Adidas	-12
▁Sutherland	-12
▁apartheid	-12
▁Viktor	-12
▁flatter	-12
▁hallway	-12
▁wandering	-12
▁Canal	-12
▁LI	-12
▁cooker	-12
▁blockade	-12
▁peaked	-12
▁voyage	-12
▁Respond	-12
▁smoothly	-12
▁stockpile	-12
▁Revolutionary	-12
nov	-12
▁Lithuania	-12
ME	-12
▁disco	-12
▁Petroleum	-12
▁Sigurdsson	-12
▁embargo	-12
▁susceptible	-12
▁cupboard	-12
▁Blo	-12
▁overcame	-12
▁ANZ	-12
▁Seal	-12
ista	-12
▁BET	-12
▁Duffy	-12
▁Persian	-12
▁traced	-12
▁Semitic	-12
▁Fortune	-12
▁assignment	-12
▁Lyn	-12
96	-12
▁Worse	-12
▁Willian	-12
▁disappoint	-12
▁balloons	-12
▁muster	-12
▁sweetheart	-12
▁13,000	-12
▁ancestors	-12
▁Warsaw	-12
▁Investor	-12
▁Fit	-12
▁Paralympics	-12
▁tab	-12
▁Acting	-12
▁embattle	-12
amine	-12
▁duel	-12
▁gymnast	-12
▁DA	-12
▁Anita	-12
▁Asset	-12
oe	-12
▁mammoth	-12
▁Verdict	-12
▁Vernon	-12
▁rifles	-12
▁secretive	-12
▁Mogg	-12
▁rug	-12
▁190	-12
tting	-12
rated	-12
▁chooses	-12
▁Alec	-12
▁Islamabad	-12
▁Burnham	-12
GA	-12
▁councillors	-12
▁2023	-12
▁adequately	-12
anne	-12
wall	-12
▁BEIJING	-12
▁TikTok	-12
▁Teresa	-12
▁resemblance	-12
▁Arc	-12
▁defi	-12
▁hairdresser	-12
▁Reese	-12
▁clarifi	-12
gas	-12
▁Jer	-12
▁Sinai	-12
▁Lineker	-12
SO	-12
▁unreasonable	-12
▁justices	-12
▁promotes	-12
▁Rudy	-12
▁hammered	-12
▁compell	-12
▁inhabitants	-12
gon	-12
▁Amazing	-12
▁knighthood	-12
Bo	-12
▁drummer	-12
▁telly	-12
▁astronaut	-12
▁flanker	-12
▁Burger	-12
▁culinary	-12
▁liberties	-12
▁quantities	-12
▁Rochdale	-12
▁edgy	-12
▁courthouse	-12
▁owing	-12
▁Present	-12
▁Branch	-12
▁Bit	-12
▁dynamics	-12
▁slips	-12
▁patrons	-12
▁fo	-12
▁anguish	-12
prnewswire	-12
▁Typical	-12
▁perfume	-12
fold	-12
▁Luna	-12
▁nutrients	-12
▁surrendered	-12
▁identifie	-12
▁grilled	-12
▁ominous	-12
▁Interesting	-12
▁robotic	-12
▁inflated	-12
▁Zoom	-12
press	-12
▁foil	-12
vent	-12
▁Honduras	-12
▁McQueen	-12
▁curry	-12
▁ignorance	-12
▁Dom	-12
▁tame	-12
▁drastically	-12
▁Alberta	-12
▁Tibetan	-12
▁Jacksonville	-12
▁Bir	-12
▁Lama	-12
▁ranch	-12
▁ba	-12
rb	-12
▁gaffe	-12
▁Nielsen	-12
▁maneuver	-12
▁envision	-12
▁Nicholson	-12
▁90,000	-12
▁Kur	-12
combe	-12
rel	-12
,300	-12
▁accumulated	-12
▁Koreans	-12
▁comp	-12
rab	-12
▁Benteke	-12
▁predators	-12
▁upheaval	-12
▁Dinner	-12
▁adore	-12
▁Christianity	-12
▁Success	-12
▁downgraded	-12
▁denounce	-12
▁AAP	-12
▁Connolly	-12
▁reshuffle	-12
▁upbringing	-12
▁freelance	-12
▁showbiz	-12
▁Birthday	-12
▁equation	-12
▁Treasurer	-12
rising	-12
One	-12
▁Nate	-12
▁tunnels	-12
▁Boas	-12
gri	-12
▁Sharma	-12
▁Alcohol	-12
▁Madeleine	-12
▁separating	-12
▁pe	-12
▁measurements	-12
▁Investments	-12
▁Qa	-12
▁Kell	-12
▁communicating	-12
▁vinegar	-12
▁Married	-12
▁Laboratory	-12
▁entail	-12
▁Parade	-12
asi	-12
ronically	-12
▁executions	-12
▁Rent	-12
▁Iggy	-12
▁greens	-12
▁classics	-12
▁Slovenia	-12
nia	-12
▁variations	-12
▁Myers	-12
ense	-12
▁gem	-12
▁initiate	-12
▁revered	-12
▁revamp	-12
▁onlookers	-12
▁Kahn	-12
▁Ol	-12
▁competitiveness	-12
▁pressured	-12
▁Sy	-12
▁Jakarta	-12
▁Irma	-12
▁womb	-12
▁encore	-12
MO	-12
▁Cotton	-12
▁gearing	-12
▁Production	-12
▁plaque	-12
▁Webber	-12
▁Coco	-12
▁BC	-12
▁empower	-12
▁14,000	-12
upita	-12
▁redemption	-12
▁Pig	-12
▁Believe	-12
▁Pepper	-12
▁Mattis	-12
itch	-12
▁regrett	-12
▁outsiders	-12
▁fairytale	-12
▁undergraduate	-12
▁therapies	-12
▁burgeon	-12
▁NW	-12
▁Weiss	-12
▁mae	-12
▁Push	-12
▁centred	-12
▁responders	-12
cor	-12
lou	-12
▁Fighting	-12
▁Avengers	-12
▁Esther	-12
▁repaid	-12
▁Gina	-12
jar	-12
▁1944	-12
ր	-12
9.99	-12
ffer	-12
▁trump	-12
bol	-12
▁Tier	-12
non	-12
▁Kompany	-12
▁cockpit	-12
▁deterrent	-12
▁hazardous	-12
▁Irving	-12
▁manoeuvre	-12
zza	-12
ENT	-12
▁Superman	-12
▁columns	-12
▁defensively	-12
▁erratic	-12
	-12
▁Dimitri	-12
▁Coffee	-12
▁WWE	-12
▁Garry	-12
▁oak	-12
▁pleas	-12
▁refined	-12
▁slaves	-12
▁practicing	-12
▁Jermain	-12
▁Islamists	-12
▁Superior	-12
▁flatten	-12
▁softer	-12
▁seas	-12
▁basics	-12
▁Lies	-12
tant	-12
▁même	-12
▁architectural	-12
▁censorship	-12
CE	-12
▁Moving	-12
92	-12
▁hangs	-12
▁Dai	-12
▁NE	-12
▁Perrie	-12
▁sergeant	-12
▁harbor	-12
▁Gloria	-12
▁Norris	-12
▁16,000	-12
▁comb	-12
▁inserted	-12
▁collectors	-12
▁Payet	-12
dge	-12
▁offload	-12
ddy	-12
▁McKenzie	-12
▁Johannesburg	-12
▁Admiral	-12
▁tracksuit	-12
▁Rousey	-12
▁Monty	-12
▁subs	-12
▁unrealistic	-12
▁separatist	-12
▁linger	-12
▁blues	-12
▁Donetsk	-12
▁Jazeera	-12
▁Legislature	-12
▁Tusk	-12
▁picturesque	-12
▁buffer	-12
▁1,400	-12
200	-12
▁Products	-12
▁cycles	-12
▁alleviate	-12
▁Brexiteers	-12
had	-12
▁Lottery	-12
▁5.2	-12
▁sticky	-12
▁transferring	-12
▁Stevenson	-12
▁calculation	-12
▁parcel	-12
▁Pack	-12
▁Sharif	-12
▁rabbit	-12
▁lieutenant	-12
▁negligence	-12
▁Playboy	-12
61	-12
▁snatched	-12
▁withstand	-12
▁1947	-12
▁inundat	-12
▁Killer	-12
▁medalist	-12
▁Color	-12
▁airing	-12
▁reactor	-12
▁greedy	-12
▁Liberals	-12
.05	-12
▁Pradesh	-12
▁exterior	-12
▁meditation	-12
▁Arlington	-12
▁metaphor	-12
▁12.5	-12
▁Spot	-12
▁Tap	-12
▁needle	-12
▁Lieutenant	-12
▁applicable	-12
▁horrifying	-12
▁Suicide	-12
▁continuously	-12
▁Register	-12
▁absentee	-12
▁Morton	-12
▁Wait	-12
▁OJ	-12
▁characteristic	-12
▁segments	-12
▁outset	-12
▁MK	-12
▁campuses	-12
▁Brumbies	-12
▁Firefighters	-12
▁climax	-12
▁memorabilia	-12
▁composure	-12
▁groceries	-12
▁MRI	-12
igan	-12
▁Letters	-12
▁truce	-12
▁Mayo	-12
▁1,300	-12
▁nationality	-12
cin	-12
▁Mint	-12
ullah	-12
▁Points	-12
▁Industries	-12
▁Parsons	-12
▁Radcliffe	-12
▁abduction	-12
▁chew	-12
▁morality	-12
▁Burma	-12
▁deriv	-12
▁Dior	-12
▁ecosystem	-12
▁barr	-12
▁Farmers	-12
▁brightest	-12
▁splendid	-12
▁LGBTQ	-12
▁Daddy	-12
▁fumble	-12
▁notices	-12
▁Twin	-12
aria	-12
▁Bash	-12
▁breastfeeding	-12
▁thumbs	-12
▁embellish	-12
е	-12
▁punitive	-12
▁scorn	-12
▁Sever	-12
tine	-12
▁Ballet	-12
acy	-12
.90	-12
▁echoes	-12
▁brake	-12
▁rounder	-12
▁Marion	-12
▁Leipzig	-12
▁carnival	-12
▁midterm	-12
▁Tevez	-12
▁Rouge	-12
▁bogus	-12
▁drip	-12
▁18,000	-12
▁melted	-12
▁Plans	-12
▁Tibet	-12
▁theoretical	-12
▁¬	-12
▁showcasing	-12
▁dough	-12
▁bitten	-12
▁snapping	-12
▁LED	-12
,200	-12
▁crocodile	-12
▁Uefa	-12
▁courageous	-12
▁Baltic	-12
▁legion	-12
sham	-12
▁moan	-12
▁Canio	-12
▁550	-12
mun	-12
▁skating	-12
▁entrench	-12
▁tidy	-12
▁Livingstone	-12
▁FCA	-12
Leary	-12
▁affidavit	-12
▁Woo	-12
yne	-12
▁4.1	-12
eon	-12
▁alienate	-12
▁5.8	-12
▁Cri	-12
▁Manu	-12
rock	-12
▁OECD	-12
▁Vaughan	-12
▁Courtois	-12
▁fairer	-12
▁Poly	-12
▁info	-12
▁crane	-12
uter	-12
▁Corner	-12
▁commands	-12
▁stripes	-12
▁brazen	-12
▁nationalism	-12
▁Von	-12
▁Gerry	-12
▁addicts	-12
▁sourced	-12
▁Alves	-12
▁Pitch	-12
▁Marcel	-12
▁dishonest	-12
owitz	-12
▁Stick	-12
▁spreads	-12
▁flavor	-12
▁masters	-12
▁tapes	-12
▁bites	-12
▁ya	-12
▁banners	-12
▁mal	-12
▁adrift	-12
▁McCoy	-12
rank	-12
▁publicist	-12
▁Goodwin	-12
▁dimension	-12
▁disrespectful	-12
▁Cream	-12
▁blade	-12
▁workouts	-12
▁Bury	-12
▁tra	-12
▁Rahm	-12
mbo	-12
▁gw	-12
▁Tasmania	-12
▁Manly	-12
NC	-12
▁Bezos	-12
lich	-12
▁Interview	-12
▁constraints	-12
▁fascist	-12
▁Moran	-12
▁meaningless	-12
▁FI	-12
Me	-12
▁disgusted	-12
▁chickens	-12
▁Hate	-12
▁gunshot	-12
▁abundant	-12
▁subsidy	-12
▁varieties	-12
▁Lowry	-12
▁weakening	-12
▁unfit	-12
▁Dolphins	-12
▁EP	-12
self	-12
chin	-12
▁Mendes	-12
▁gu	-12
▁Fil	-12
▁CH	-12
▁legends	-12
▁bind	-12
▁volcanic	-12
▁Beatrice	-12
▁Door	-12
▁VAR	-12
▁molecules	-12
▁Sherman	-12
▁Cry	-12
▁Worldwide	-12
▁FirstCa	-12
▁downfall	-12
▁storyline	-12
▁impaired	-12
▁backward	-12
▁Gwyneth	-12
▁disdain	-12
▁feminine	-12
▁rugged	-12
▁Clarence	-12
▁swine	-12
▁progressing	-12
▁Newsnight	-12
▁architects	-12
▁cramm	-12
▁neatly	-12
▁Blac	-12
▁fulfilled	-12
▁Metal	-12
▁stare	-12
▁Milk	-12
▁Flag	-12
▁recounted	-12
▁Argentinian	-12
▁myriad	-12
97	-12
▁deferred	-12
▁Elaine	-12
▁redeem	-12
▁Experience	-12
▁corridors	-12
▁defences	-12
lea	-12
▁slices	-12
▁flattering	-12
▁Minorit	-12
▁1,1	-12
▁sultry	-12
▁maternal	-12
▁Wasps	-12
▁shotgun	-12
Now	-12
.15	-12
▁sacrifices	-12
idi	-12
▁arrogance	-12
▁Strachan	-12
▁Sitting	-12
▁fifty	-12
▁homosexuality	-12
vel	-12
▁vomiting	-12
▁preacher	-12
▁subdued	-12
▁insert	-12
aine	-12
▁separatists	-12
▁nowadays	-12
▁Berger	-12
▁booth	-12
▁Hip	-12
▁Panel	-12
▁Basin	-12
▁paedophile	-12
▁Essential	-12
▁unthinkable	-12
▁bitcoin	-12
▁seminar	-12
▁Meadows	-12
▁repayment	-12
▁1939	-12
▁2050	-12
▁Edgar	-12
▁Witness	-12
nam	-12
▁Core	-12
▁Mais	-12
▁Must	-12
▁pu	-12
▁discounted	-12
▁Senators	-12
▁Nic	-12
▁Thorne	-12
▁remedy	-12
▁envisage	-12
81	-12
▁congratulations	-12
▁Borough	-12
▁Transfer	-12
▁Kelley	-12
▁minors	-12
▁122	-12
▁Him	-12
▁Wick	-12
▁Balotelli	-12
▁freight	-12
▁genome	-12
▁goat	-12
▁4.6	-12
▁eviction	-12
▁Harding	-12
▁queues	-12
rag	-12
▁Ur	-12
▁ve	-12
▁pedal	-12
▁disgust	-12
▁tray	-12
nna	-12
▁Boulevard	-12
▁Housewives	-12
▁quantitative	-12
▁quizzed	-12
▁benign	-12
▁continuity	-12
▁finely	-12
▁attach	-12
▁scour	-12
▁unsustainable	-12
▁skeleton	-12
▁AMC	-12
▁woodland	-12
▁rattled	-12
▁Emanuel	-12
▁handshake	-12
▁craze	-12
▁Cesar	-12
▁Profile	-12
▁Mila	-12
ime	-12
▁WBA	-12
ush	-12
▁ink	-12
▁NZ	-12
▁mourn	-12
▁Clinical	-12
▁Fife	-12
▁Whole	-12
▁sparks	-12
▁Pratt	-12
▁Northeast	-12
▁Opinion	-12
▁congregation	-12
▁swollen	-12
▁IBF	-12
▁Versace	-12
▁autopsy	-12
▁Til	-12
▁Sherwood	-12
▁Sharing	-12
▁influences	-12
▁Beale	-12
▁ja	-12
ctor	-12
▁YouGov	-12
▁liberation	-12
▁certification	-12
▁Chemical	-12
▁prioritise	-12
▁heatwave	-12
▁Vine	-12
▁outpost	-12
▁precaution	-12
▁guessing	-12
▁runaway	-12
▁ge	-12
corp	-12
▁fading	-12
▁hitter	-12
▁footing	-12
▁aka	-12
▁resolute	-12
▁gruesome	-12
▁thief	-12
▁Eurozone	-12
▁beverage	-12
front	-12
▁Doll	-12
▁Tele	-12
▁clamp	-12
▁contraction	-12
▁advertise	-12
▁bake	-12
▁OF	-12
▁Directors	-12
▁Leaving	-12
▁haunt	-12
▁cuff	-12
▁Blu	-12
sol	-12
▁stacked	-12
▁digest	-12
▁CPS	-12
▁improvis	-12
▁forceful	-12
care	-12
tia	-12
▁shaky	-12
▁recurring	-12
▁metals	-12
▁jewel	-12
▁Af	-12
▁Starmer	-12
OM	-12
▁Known	-12
▁subpoena	-12
▁routines	-12
.45	-12
▁grooming	-12
500	-12
▁Fields	-12
eller	-12
▁razor	-12
▁coffers	-12
▁Ready	-12
▁HP	-12
▁hay	-12
▁Halep	-12
▁bricks	-12
clock	-12
▁Knightley	-12
▁Stark	-12
▁Abedi	-12
wing	-12
▁Works	-12
▁Olly	-12
▁Arabian	-12
▁Continu	-12
▁Mancini	-12
▁Paltrow	-12
▁Computer	-12
▁Casino	-12
▁Moussa	-12
▁hangover	-12
strom	-12
▁dentist	-12
▁discarded	-12
▁Xavier	-12
▁midfielders	-12
ils	-12
▁seam	-12
▁Cafe	-12
chu	-12
▁Delevingne	-12
▁misguided	-12
▁situated	-12
▁Continental	-12
▁marital	-12
▁Savings	-12
▁chunky	-12
ific	-12
▁reacts	-12
Pa	-12
cri	-12
▁Rag	-12
▁Astros	-12
▁Boat	-12
▁Ridley	-12
▁Symphony	-12
▁Holloway	-12
▁lamented	-12
▁Doha	-12
rup	-12
▁Hou	-12
▁Author	-12
▁Skye	-12
tics	-12
▁gloomy	-12
▁sp	-12
▁eminent	-12
▁cultivate	-12
▁ivory	-12
▁sorrow	-12
▁Yates	-12
▁fearless	-12
▁Colour	-12
▁manipulate	-12
▁bombard	-12
▁variation	-12
▁Pont	-12
▁derail	-12
▁Bud	-12
▁Gru	-12
▁pirates	-12
▁Ruben	-12
born	-12
▁outreach	-12
▁Ricardo	-12
▁Ore	-12
ened	-12
gr	-12
▁puck	-12
▁McCall	-12
▁Economists	-12
▁thermal	-12
ան	-12
▁handicap	-12
▁specialty	-12
▁dinosaur	-12
▁Colts	-12
hai	-12
▁AND	-12
▁Guatemala	-12
▁Hammers	-12
▁Rotherham	-12
▁avalanche	-12
▁philosophical	-12
▁pianist	-12
▁rigged	-12
▁CE	-12
▁rehearsals	-12
▁telescope	-12
▁waiter	-12
▁polish	-12
▁AN	-12
▁delete	-12
▁tanker	-12
▁depiction	-12
▁Kaepernick	-12
▁Garrett	-12
▁dunk	-12
▁awaits	-12
▁GQ	-12
▁Historical	-12
▁cuddl	-12
▁overseen	-12
▁Py	-12
▁Lori	-12
▁misuse	-12
▁meticulous	-12
▁apologies	-12
▁lunar	-12
▁blitz	-12
▁WADA	-12
▁Parks	-12
▁hydro	-12
▁Leanne	-12
▁Tinder	-12
preserving	-12
hui	-12
▁tones	-12
▁Boo	-12
LO	-12
▁boiling	-12
▁prevalen	-12
▁Hathaway	-12
▁pregnancies	-12
▁Oxfordshire	-12
▁Joaquin	-12
▁reelection	-12
▁CITY	-12
▁4.7	-12
TT	-12
▁pillow	-12
sion	-12
▁unwell	-12
▁Fal	-12
[...]
